3f3c9733
3f0fb64b
3ef8b924
3efdacce
3f514910
3ebcb307
3f054089
3f12ba35
3f1af190
3edf612e
3f3087dc
3f225a64
3f2ba629
3efe94b1
3efbb53a
3ecea643
3f24a658
3f2b2dde
3f143ff4
3f2772f9
3ed7b3e3
3f473826
3f28963e
3f782d3a
3f42a7ab
3f0cddd6
3f0effc7
3f044da2
3ed1607c
3f151ad4
3f13f1be
3f4e95e8
3f2bb93e
3ee80f66
3ee895ec
3f574c94
3f1851ae
3f126092
3ed53ed6
3f26deb1
3eb60680
3f2073df
3f61a8cc
3f497b47
3ec3fd65
3efbe8a0
3f1b9044
3f06a4d5
3efe40a2
3ef694a8
3f0cd725
3ebc1a4a
3eb1e047
3f14cf25
3f3755a4
3f31abdf
3f0bf04d
3f817e6b
3f3301d2
3ee09b49
3f1257aa
3f23f8d6
3ee07f42
3f08277f
3f20217b
3f277b63
3efbf390
3f50de70
3eea9f1c
3f0f3079
3f6aa6bb
3f1e8b12
3f19b175
3f07852d
3f436802
3ef61958
3f5776ec
3ed4e31c
3f4834a1
3f489565
3f23945f
3f4e81c8
3f1ef8cd
3f1cd005
3f114469
3ef69cf4
3f37b408
3f452a18
3ef3d49b
3f0e0943
3f09c14a
3ee3b76c
3f1a7668
3eef656f
3f3af26c
3f15d8a4
3ef72ea7
3f0940bd
3efc0eb1
3f103fc6
3eeb6cfa
3e6dd48f
3f5e8449
3f6478e5
3ef3fac3
3f3be0eb
3f559713
3f0198b2
3f051b9e
3f067dcc
3f15eb30
3ebc822c
3f53f1dc
3ed6e6aa
3ef3d28f
3f594e58
3f5b734e
3ede3ee2
3f4138b8
3f1f8883
3ef71cad
3ed8b0a7
3f0e581c
3f17c6a8
3f47ccbe
3f393250
3ec3b3d0
3f25d6fc
3eebc15e
3f1b00d7
3ea54f99
3f843faf
3f422197
3f1ff46f
3f525304
3f1319c9
3f32aac6
3f40e245
3ef25606
3ecdc9e8
3f225917
3f3dfff4
3f01ec70
3f0435d4
3f473f5f
3f308bc0
3f0ee84b
3f2565f9
3ee090dd
3f21b934
3ecc6da0
3f3ebfb0
3f466c92
3ee3b15b
3f453c64
3f1ccc3e
3f203c50
3f23f4d7
3f28fbdf
3ee6940b
3f40bd20
3f04a558
3f20a2b6
3f21f434
3f259749
3f106387
3f02b4e3
3f777bf4
3ed74846
3f3556a4
3efad99e
3f21d048
3ed83df0
3f1b4779
3f078b92
3f2e8c6d
3f250135
3f05cc45
3f00e273
3f1282fb
3f5fae75
3ed6fa59
3f401042
3ee834a0
3f5e4f18
3efdbe06
3edb381f
3f1b0ef1
3f7433ff
3f0a3492
3f06c81a
3ef698f8
3ee5af0c
3f329636
3f2e140d
3f0193c6
3ebd7783
3f12a564
3ecc1233
3f48d983
3f52f639
3f00ef17
3f039500
3ed329f8
3efb3bdf
3f25f9d8
3f4720dd
3f44b1d4
3ed785df
3f05c8c3
3ee72178
3f36c107
3efffdc4
3f0a29b1
3f166e29
3f3bf83f
3f005a0d
3f27e6f4
3edebf32
3f23702b
3f36b651
3f15b37c
3ec6c166
3f05eb7f
3f0e3299
3ef477f9
3f582bf3
3f46e63a
3f1e8b45
3f307ab3
3f52293f
3f1bd1d6
3f1a572f
3eff3cab
3f4ff003
3f4de3d9
3f3612aa
3f56adde
3f041cb2
3ed30adf
3f448186
3ef9c56d
3ee986a7
3ef2cf37
3f0c8161
3ef229ce
3f0fec01
3edcc5af
3f696e57
3f26508a
3ef075e6
3eea86c7
3ee0bb94
3f0ed73e
3f28306d
3f33a79b
3ee43803
3ec56b52
3ee56aba
3ec9f4bd
3f043b6c
3eee3b11
3f49ccb4
3f36bb82
3f3b4b08
3f02653c
3f081f12
3f5e9f8c
3f46b1f0
3f0a2a9f
3f156d06
3f0ac0a4
3f11fd37
3f2a7dcc
3f293b85
3eb03bc8
3f1b9557
3f34ee49
3efee9f9
3f1dd032
3ea7244d
3f13e750
3f2728f2
3eeacb84
3f72c7bd
3f1f816f
3ef6e411
3f3df892
3f449846
3f16ffd1
3f18c2d1
3f0b2013
3f2f6153
3ed4a979
3f094233
3f28a702
3ee49fe6
3f35d9a9
3f2c357a
3f22ec28
3f4834ba
3f3146a4
3edc1106
3f1d942a
3f2396a2
3eeb2e72
3f264b7c
3f0abb98
3f267747
3f2caf8d
3efc3758
3e7288ff
3f3d0766
3f0976d1
3f2409f8
3f5acf7d
3f148b44
3f07584d
3ed7d396
3f4a8f8a
3f52dd88
3f5cd325
3f007675
3eaebc60
3ee0299a
3ed0832d
3f035d37
3f18a548
3efd6d9a
3f059e02
3eeaaf52
3f81e1fc
3f153468
3f3bc045
3f29961b
3f0949b6
3f25d21e
3f076209
3f08c49c
3eef78e7
3f42a5f4
3f346b35
3eecba14
3f18cdfa
3f042141
3f4d24f1
3f064a33
3f2cf855
3f3de243
3eb29a57
3eff74c8
3f151280
3f059346
3f3c67e1
3f21b80a
3f58a832
3f159093
3f24e19a
3ecee00e
3f566000
3f077fec
3eda2c9d
3f2fb4f8
3f293e50
3eed8e41
3f6a259b
3f3eb3f8
3f3b1175
3f34283c
3f0d374c
3f31833e
3f40d71f
3ef61e52
3ee4aabc
3f0484e1
3ee2e111
3f0bedf8
3eed6bac
3ee6f54b
3f3d9d7e
3f3674dd
3f4c170d
3ecdf7a4
3f19129c
3f2e6e0e
3f4a4e54
3eba6769
3f17ef70
3efeed93
3f0b58f3
3ee11c1f
3f5c01cb
3ed9eb62
3f4b7b5c
3f2c5ec8
3f13f6c0
3f2fb7aa
3f32c07f
3f277561
3ec14381
3f743beb
3f3cc31c
3eea2a9b
3eeb97dc
3f42a71d
3f271349
3ef5da52
3ee72dc9
3ee4fb59
3f1cbc05
3f24e40f
3f42d651
3f21ffa3
3ecbf974
3f1dee8b
3ed846fc
3f12baf7
3ee0ec73
3f1a4efa
3f2610f9
3f2fd0cd
3f0b208f
3f448922
3f188f78
3f55a02e
3f2f5783
3f5a4486
3f4c73c2
3f0a4f4d
3f518fa1
3f57c063
3f23c571
3f42c86a
3f07e6fe
3ec06862
3ece7895
3f508325
3f4a79c4
3f2d36c9
3f25eeef
3f67d521
3f08f669
3f05717f
3f4d2e9b
3eb84fa8
3f1e95a8
3f582a62
3f53a423
3f52117f
3f3e7778
3f05551e
3ee4e91a
3f212a4b
3ef2094d
3f1dc1c4
3f46f1e1
3f0d01b9
3f64df74
3f136db2
3f38cf44
3ee7b597
3ee0748e
3ec3770f
3f04d598
3f35e29c
3f09c981
3f12b1a8
3ed95da2
3ef71aba
3f3537f9
3ec663aa
3f03f57b
3f4e4061
3f563b04
3ea677a7
3efdf22e
3eb96354
3f5c5550
3f17580d
3f330f35
3f44b2bb
3f070b42
3eff70f0
3f4eca16
3f342532
3f17370d
3f6ea134
3f4c7d17
3f1c4a7f
3f164bbc
3f2e87bc
3efa968b
3f616393
3f38f673
3f3663e9
3f0d1b3a
3f3184c3
3f32e79e
3f19d143
3ecf883d
3f4ebc2c
3f39f088
3f086016
3ee279c3
3efe55fa
3f785202
3edbdbc8
3ec94783
3f241279
3f25a350
3f2b9079
3f6c0919
