@000000
a2
8c
9f
78
a6
a7
87
9e
91
98
94
6c
75
8a
8e
8f
8e
73
8b
92
a6
90
5e
7c
88
ad
8b
7e
91
ab
a3
95
81
87
7e
83
68
72
7f
9e
86
75
7a
77
a2
81
84
ac
74
a9
7b
8f
85
91
98
72
74
a4
98
7e
93
9e
90
81
7e
72
ac
86
a3
6a
81
7e
92
76
78
7b
a4
72
96
9d
90
a2
89
b0
63
7f
90
7b
78
78
bb
9e
85
96
84
91
8b
73
9c
99
ac
61
a5
8a
a5
a3
94
aa
a5
8f
7f
75
82
87
81
74
79
63
9a
92
9e
82
67
75
84
9b
9e
8b
83
b2
9f
99
7f
aa
8d
90
6b
7a
7b
8d
79
71
8e
8d
a3
80
80
a8
8a
ac
86
90
7d
8a
83
71
8f
99
7a
8a
94
a0
8d
89
8f
80
a6
8f
97
71
91
7b
88
76
6c
76
a2
78
a4
9b
91
a0
7d
c8
6e
96
92
78
64
7f
b2
a0
7e
97
83
85
74
7c
95
a1
a4
7c
aa
8f
a0
a0
98
8b
87
86
8d
8b
82
91
89
80
7e
69
82
71
88
a4
67
71
94
a7
a1
69
88
af
97
79
72
b5
7e
7a
69
83
86
82
79
65
99
86
93
7b
86
9c
92
a3
8a
9e
85
9e
99
7a
86
9a
82
92
a0
a7
95
83
8a
6b
98
91
9a
59
99
8d
85
7a
7d
9b
9b
7a
9b
9d
91
96
84
ae
6b
8e
94
8d
76
95
af
c0
90
93
96
88
7b
73
97
98
bb
92
ab
86
92
92
90
9b
9d
84
72
7f
80
95
88
7f
8b
77
82
86
9a
93
6d
86
93
98
97
95
8a
a6
ae
98
8a
9e
85
84
64
89
7b
75
80
78
8a
99
aa
81
85
b6
6e
ad
83
8e
7a
98
8d
87
86
9a
8b
82
a1
92
9b
8c
93
80
a8
88
9c
63
8e
8a
7f
81
7d
88
a4
71
9f
97
8e
95
81
b3
6e
9f
a9
86
76
87
a6
a2
84
a9
7e
7d
77
8a
8b
94
89
7b
a8
94
89
8d
81
9e
7e
b3
ac
91
82
81
bb
85
98
7a
a0
7a
85
a8
58
86
77
9e
8b
95
b4
8b
80
89
96
70
88
8c
b0
90
90
a0
8b
77
6b
8a
80
93
75
78
85
78
79
85
75
97
a9
8a
4f
85
b5
87
89
a9
70
93
9a
96
91
97
91
77
89
74
93
60
80
bb
73
8a
7d
77
9d
c5
8f
82
8b
65
85
87
87
68
56
9d
6d
7d
6c
87
95
aa
84
7e
70
79
a1
a8
73
9e
75
aa
8d
ab
a7
95
9a
89
a3
6b
95
69
a0
72
99
92
6b
8b
68
98
7d
87
ba
9b
83
75
b5
71
95
90
82
9e
a4
73
78
75
8a
71
91
7d
6e
7d
91
90
84
b7
6c
79
9d
95
5e
97
8c
79
81
8f
82
81
94
9e
86
a9
8f
91
95
7b
9e
69
a5
9a
6c
86
75
77
7e
b8
ad
83
6e
6e
ab
83
89
8c
54
aa
65
7f
84
8d
89
ac
7e
8e
7b
8b
84
9c
8b
ae
82
bd
9c
9a
92
8f
7e
95
90
a4
95
8b
97
76
81
9c
54
82
83
8a
87
75
a8
ad
8c
46
9c
98
72
8d
57
a0
8f
5c
9e
6d
8a
73
8d
8a
a7
8d
97
75
8c
ac
81
93
9c
8d
54
6e
6f
a3
81
b0
ba
82
9a
a6
7a
96
ab
8d
a5
6a
94
be
8f
93
83
8f
80
70
70
ac
b4
97
82
65
7b
67
ad
85
89
ac
7e
83
57
80
89
93
5c
98
7e
93
a2
aa
87
93
8a
cd
9b
a0
7d
74
86
8a
86
ac
94
8c
ab
70
85
bb
6e
94
85
97
76
8a
a0
bf
7c
70
88
a6
77
9c
6d
96
82
5f
87
6c
84
7d
8f
8e
97
68
96
5e
6e
a1
76
9b
76
8b
6c
6d
76
9c
8f
a9
a0
9d
ae
9b
68
b1
8f
91
a0
6c
8f
b6
83
88
8b
7f
75
70
53
95
86
61
75
5c
82
68
a4
82
83
b7
7c
8d
7f
a5
78
98
7f
8e
72
98
83
60
b1
ac
7f
95
8b
a1
9e
93
6e
69
7b
7e
99
91
5d
9c
ac
8c
88
85
7a
7f
6e
6e
84
62
9d
92
a0
66
67
6f
a0
9b
78
9b
8f
ac
79
87
83
7a
8d
69
9f
8c
8e
6d
81
94
87
8d
b1
86
7e
a3
66
8d
92
83
86
82
94
78
89
7f
7b
93
a0
98
a9
9e
99
7f
72
ac
9f
63
a0
93
ad
8b
87
8b
77
76
5b
92
7f
a8
95
7a
8d
99
8e
85
72
84
83
58
b4
b1
6d
74
97
a0
8d
a1
7c
68
73
89
85
71
67
a7
ba
76
7d
83
6f
7d
78
72
9a
74
9a
91
91
77
84
81
8a
91
86
8f
a1
b2
6f
80
89
6f
89
66
a8
67
95
87
82
9e
82
9d
86
7b
71
92
74
7f
98
aa
97
99
81
83
8f
7b
6f
99
90
7a
a7
8d
8d
ae
72
89
af
70
b3
a6
91
7f
b2
82
8a
8c
57
78
87
7f
7d
75
8c
94
6c
6f
62
75
60
58
82
a0
7f
8e
8b
93
9c
80
66
7a
96
87
88
81
7c
82
ac
73
77
83
82
6e
84
71
a8
62
aa
93
9a
4e
79
66
73
92
a2
65
8e
9c
8e
8e
74
72
a5
75
9d
82
8b
92
6a
9d
95
b5
9b
64
9c
a6
ab
7d
79
8a
9a
93
a8
88
75
83
78
a3
8f
9e
aa
a2
82
a9
85
95
a0
7e
a8
93
90
74
ab
7c
9c
8e
69
86
9d
7d
60
70
9f
9f
82
60
7b
89
6b
63
90
89
76
9d
93
7c
a0
a0
6b
73
88
a9
80
5b
67
88
a5
77
8a
80
96
65
60
68
8d
79
ac
9f
99
59
6d
6e
90
a7
7d
78
88
81
85
a5
7d
95
9c
9e
90
5c
7b
7c
70
bb
ae
98
82
87
8c
ae
98
81
7b
a6
a9
80
b2
8e
75
80
79
a9
7f
9b
9b
a6
9c
ac
81
87
9a
5b
a1
88
aa
4c
86
8a
85
99
8a
a1
88
64
8d
6a
9c
a3
88
75
6e
9b
70
7b
a3
a0
74
81
7a
89
9b
91
97
82
6f
98
99
9d
95
8e
9c
9d
83
8c
7a
98
7f
76
9a
92
9e
a2
97
8d
81
96
a6
80
ab
81
c8
8a
75
aa
6f
7b
a1
6e
79
8d
86
8f
75
7d
64
84
93
a4
97
99
b2
77
9e
85
8c
94
9f
9d
72
86
6f
99
65
94
99
8c
8a
71
a1
7f
bd
79
a2
81
99
7b
aa
79
7c
99
93
7c
88
77
7c
71
a9
93
84
7c
74
b3
6b
6a
a4
78
65
88
81
8b
b9
85
85
93
73
a7
b6
7e
80
7c
ba
7b
92
7f
88
ab
a0
80
7f
a1
87
a3
c0
87
92
b0
95
82
ab
5a
b0
72
82
af
6b
8a
8c
86
72
98
98
85
7c
8a
a4
7b
96
98
64
b1
95
86
80
8f
aa
9e
ad
77
7e
95
ae
91
8a
95
85
88
75
8e
70
93
9a
98
a1
99
78
7e
c1
7d
92
6b
95
a9
81
a6
97
77
7a
71
7c
99
78
a9
72
61
98
76
89
91
75
79
90
72
71
86
7d
a4
96
7e
6e
7b
9d
73
ae
7f
77
85
8b
77
97
a6
7b
8f
9e
94
94
a1
7b
91
81
70
96
6e
8d
af
65
93
8f
7e
7f
74
81
74
8e
8f
9b
78
83
89
a8
90
8d
83
83
9f
88
ab
8f
70
a1
8b
ad
70
76
91
9c
96
71
8b
85
61
91
97
9d
93
69
74
8f
7d
93
80
8f
b7
90
8f
84
74
96
91
7a
94
4d
9c
82
6d
90
8e
79
9d
71
75
a2
74
8b
8f
67
9c
b2
af
7b
7d
ac
64
ab
b4
5b
79
70
79
73
8f
82
7c
9e
59
b1
ab
99
9f
8b
6a
91
94
7e
99
63
7b
8f
7a
82
78
90
9b
6f
85
87
9a
8b
a2
99
99
98
8e
84
9c
75
9d
95
96
77
8d
7b
98
78
7a
9d
86
6e
99
97
83
82
7b
c5
8c
7c
7d
a5
6e
78
8d
89
85
89
7d
6a
7a
85
95
80
bf
9d
7d
97
81
89
a1
91
9b
83
93
8f
98
72
80
aa
87
94
7b
88
85
ba
9a
72
6c
9b
a3
80
a9
9d
8a
82
a8
87
84
b3
79
6e
84
82
62
86
88
98
9b
93
83
99
9a
8b
7b
a2
89
95
92
7e
8b
7b
ae
9f
96
6d
6e
94
87
71
9a
a1
80
80
8f
8e
90
68
87
83
74
77
71
94
ba
b2
77
92
80
7d
82
95
87
9b
96
8a
90
7a
93
93
7b
6e
77
81
7a
9a
66
82
82
95
9d
8a
a4
93
a6
8e
81
68
92
7f
71
98
90
95
96
89
88
8c
97
93
9b
78
95
7d
92
86
ad
95
8d
b5
89
71
85
95
5b
8e
70
89
91
8f
8b
8e
9a
99
7b
91
a0
9e
85
81
96
8e
b0
95
8c
89
79
85
71
8e
95
a8
85
8a
90
90
7f
73
90
76
88
79
86
95
b6
9e
93
95
85
80
8c
96
9e
6f
98
90
87
a3
92
86
6c
74
89
6a
7d
82
7a
9c
7e
92
ac
74
8b
80
ab
83
84
82
83
a6
5e
89
75
8b
7b
a2
8d
81
9a
96
8e
84
83
87
76
8d
97
89
93
9d
7b
60
89
96
81
7d
75
7c
a1
8c
92
97
a0
84
81
91
7d
7d
95
6f
7a
78
90
88
84
89
7c
93
7c
84
a0
9f
91
7e
88
a0
8a
8c
7d
78
84
7c
91
8b
a7
80
89
a6
92
82
94
82
88
a3
8b
a1
89
89
9d
81
9d
6f
83
6f
8b
a8
63
9f
80
9e
a1
90
76
88
8c
93
9d
84
8b
9e
77
8c
75
8e
76
b8
83
83
87
90
8a
82
9e
75
9b
8d
b6
77
9a
ab
77
76
9b
94
6e
76
6e
9c
a2
88
6c
95
8c
9b
74
a5
86
9c
92
89
79
6e
b6
93
93
a0
83
9d
9e
8d
93
97
7e
89
81
a5
81
77
7f
80
86
86
8c
77
aa
a3
64
b0
91
90
86
8a
7c
8c
6d
af
8e
8a
97
7c
85
7e
83
77
81
73
95
9a
8a
91
6e
8a
78
91
81
76
a5
70
8a
b5
86
91
91
63
c2
b9
bd
88
95
5e
6d
68
a3
9b
8c
8b
a4
68
91
8a
82
83
93
8e
77
a7
86
8c
7b
83
6d
92
79
81
9d
8b
89
7d
a8
86
8c
94
9d
84
85
6c
80
88
8b
73
a5
97
7f
6a
a0
b2
a1
85
8f
69
66
84
89
70
5c
b5
68
65
8f
7e
7f
89
b9
76
8f
79
a7
7a
91
9a
6b
97
9b
73
80
90
8f
7e
7c
88
7d
96
78
73
b3
76
94
7a
a4
9c
5f
98
94
90
70
b6
88
9c
ae
6d
a4
60
aa
84
91
76
9e
76
92
ad
91
82
7c
8d
5a
9a
81
84
96
87
74
96
9b
84
92
8a
7f
9c
78
9b
90
8c
a5
87
af
77
97
8f
93
6f
c0
a5
80
83
8e
a9
87
95
89
6a
86
6a
8a
6e
97
9b
7b
71
73
7d
8b
72
93
73
94
6a
7b
99
80
af
6a
9c
bc
83
87
7e
a0
89
79
78
8a
8c
75
64
92
83
89
90
a8
7d
63
a9
bc
7f
7d
9f
6a
76
7f
95
8a
67
9f
ab
8a
81
82
7e
6a
8e
aa
82
83
7d
7c
6e
a9
76
8b
73
88
b3
9f
7f
8b
6c
81
97
9a
a2
89
5d
99
8e
90
76
9c
78
82
5c
a8
8f
64
9d
7c
77
6c
aa
88
9a
96
aa
9d
7a
99
78
7f
a4
4e
8f
72
6c
7c
8b
75
68
8c
8a
91
99
8e
a5
9d
67
a4
7c
97
aa
83
90
7f
85
7b
7e
93
9e
b2
a2
bc
8a
75
88
78
9b
a5
ce
83
7d
71
91
7c
84
a7
94
a0
96
b2
5f
8a
8b
8d
a6
9e
7e
a3
89
79
87
78
75
98
a6
90
93
5f
84
93
93
b7
96
8f
9e
95
8e
8f
83
9f
7c
9a
8c
99
87
66
8a
74
95
76
80
79
76
85
b2
9e
60
6f
8c
55
b2
85
7c
61
61
70
87
70
6f
a1
92
ac
99
99
8e
b2
99
a8
67
b8
96
ad
b2
5d
7c
7e
8f
51
6f
95
aa
ae
7b
a1
88
9c
63
bc
ad
b1
8d
90
8b
9e
93
92
6c
54
98
96
59
89
8d
81
87
92
7c
68
8f
7c
ac
b9
9b
8b
9a
6f
80
8a
7f
7b
8f
a1
74
84
a5
9e
89
80
7a
78
b4
a5
7a
a9
bb
87
5b
9d
b6
9b
75
70
6a
88
6c
82
74
9d
c3
4d
8e
92
8a
7f
b0
9a
91
a8
9a
a3
67
91
85
7f
82
93
96
7c
89
a5
7c
9e
a0
70
51
85
8d
68
7c
94
bc
9a
80
7b
8b
96
7c
93
8d
a6
80
95
8d
99
8b
93
79
61
83
aa
6d
9b
95
98
85
92
7b
70
9a
8d
a5
c5
94
99
78
8c
82
9d
9c
69
8d
84
85
6e
99
ad
86
a1
71
7f
a3
af
81
b6
89
87
87
89
b9
92
93
8c
6f
8c
64
8d
80
a8
a9
5c
83
84
5e
88
a6
7d
6a
a3
90
73
8d
86
9e
49
8b
9b
9b
a2
6b
84
8b
70
b5
79
81
66
73
7b
9e
86
b1
b0
8b
67
a3
af
65
b1
9c
74
7b
93
a1
9f
7e
8a
79
77
8e
b3
71
8c
97
a9
a4
90
6d
76
94
91
8b
aa
5f
9e
8f
9c
82
9f
88
83
9a
87
80
73
a9
9f
85
86
80
7c
93
c2
78
ab
a3
79
aa
62
b8
71
90
92
75
84
8d
b3
88
b0
85
54
96
54
a6
a0
72
65
93
7a
a1
7f
9b
ab
90
95
80
ae
9f
b6
83
86
a9
75
a6
86
95
77
88
72
bc
78
96
8e
83
6f
97
85
7a
99
98
66
88
9a
a0
7d
96
98
86
7f
ad
b2
7d
a4
7c
bb
a6
aa
65
87
80
8d
86
8f
8e
9d
8b
9b
7e
70
9c
83
96
a5
78
6c
b3
9f
91
74
88
73
a0
bd
9a
af
7c
9c
9f
8b
a9
8f
78
96
79
78
96
9e
82
9a
73
5e
98
9a
9b
86
6b
85
8e
81
bb
6f
81
a6
a3
a6
94
90
ab
b6
75
78
ac
99
8d
65
82
8c
6e
cb
9b
74
6f
78
9d
73
a8
68
7a
75
69
79
7a
89
59
a1
6c
6c
9f
a3
85
a4
ac
8e
8a
8e
7e
9d
6d
84
75
66
8a
7c
ae
6e
68
84
98
95
96
94
76
a3
78
9d
77
7c
b7
93
89
86
b1
9e
67
5d
8f
7f
a8
6e
7a
6f
87
77
8c
87
a8
96
b4
93
7d
9f
63
92
74
a6
91
b0
a0
72
bc
9c
9e
90
88
8f
7c
85
a4
84
70
6b
b2
94
93
64
92
8b
78
bb
92
73
5a
89
9b
75
95
6a
76
6d
6c
77
74
8c
70
a1
79
74
a3
ab
90
b0
ab
8a
a4
90
8c
9a
87
83
71
65
96
84
95
7a
6d
86
8b
a4
9f
89
79
90
6e
88
8a
81
a7
89
97
7b
a1
97
6a
69
9a
6e
a1
72
85
70
87
78
91
74
9a
8f
a3
85
88
a5
69
97
72
a6
97
ba
ab
6f
ab
90
a1
8e
85
9d
74
83
a0
92
79
76
aa
95
92
6e
83
98
7d
c4
96
7d
67
79
97
7f
a5
68
70
75
6f
7f
80
93
7b
9a
7a
7f
8e
ac
89
a2
b0
93
97
88
7d
a4
6f
89
76
64
97
8c
9c
8b
6f
8d
84
9d
92
86
73
a0
89
93
77
7d
a5
8a
8d
7f
94
a8
75
74
9d
72
9c
6d
82
63
7b
64
8d
80
91
86
9a
8c
86
a9
68
96
75
a4
8b
b2
97
74
b4
a0
91
8b
83
a5
7d
81
96
8b
83
64
b5
92
7f
59
88
8a
76
b8
8d
7e
65
80
9b
86
a1
6d
7c
6b
65
7b
74
96
79
9b
6e
75
9a
a3
91
a2
a9
90
90
8f
95
a9
7c
91
6c
6c
9a
87
a7
7f
6f
8a
90
94
97
8f
7b
a2
8d
94
86
87
ae
88
99
6c
a6
a1
72
69
a7
81
aa
6d
7b
61
88
79
7f
79
97
8e
a5
85
77
a8
63
90
75
a8
94
bc
97
7e
c0
94
9c
90
8c
a8
7a
83
a2
97
c0
91
92
90
82
81
97
b9
8f
be
7f
81
8c
8f
8c
93
8a
7d
99
72
6e
c7
59
8c
ab
a0
82
ae
ab
a0
73
6d
65
bc
79
a8
99
b1
9c
88
87
8b
9a
82
a5
86
86
80
79
70
84
d8
87
90
aa
8e
4d
a3
9d
73
a5
8a
65
8e
a0
92
8e
89
a2
93
79
6e
86
6e
67
a8
6c
8b
79
75
be
c1
82
9f
86
65
98
97
9c
61
97
9f
91
a3
6c
ab
a2
a3
7c
8d
90
85
96
94
98
aa
6c
b5
5f
6d
7e
ba
97
90
7d
97
8b
66
8e
9a
8b
84
86
74
aa
a9
73
90
9c
83
8a
79
85
9f
a2
89
82
b2
97
76
6e
83
8e
9b
a9
91
92
93
9b
85
aa
9d
84
8a
b8
8e
69
a5
95
96
9a
8c
aa
95
85
8a
78
99
93
b1
8a
85
7a
99
73
77
70
84
9a
7b
a6
b2
9d
7c
8a
89
86
7e
8b
6d
87
9a
73
8b
76
70
85
9e
6c
97
a4
74
8d
a5
8c
93
7b
9c
77
a8
7f
9c
91
8b
9b
9a
71
7f
a2
95
8c
8e
68
8b
99
94
81
99
9a
7a
af
72
91
8c
a5
96
92
8c
8b
70
9b
96
7f
83
6b
86
96
99
97
86
8d
a5
77
7b
a0
9d
75
b2
8d
91
92
a4
92
6c
79
7a
7a
74
a7
91
82
87
7b
85
77
7f
82
85
87
82
82
a8
a1
93
8e
9d
a0
89
8c
70
94
b3
83
8e
7d
75
9e
7f
7b
82
89
90
bf
84
8a
9b
77
9a
7b
9e
90
a7
70
80
78
76
84
89
96
89
a2
8b
6c
9d
a5
76
79
92
98
97
9f
9d
b3
b5
aa
7c
75
a4
7f
76
94
9f
6c
96
90
90
8d
a4
9e
60
7e
9c
9c
71
a1
7f
7a
b9
77
96
86
81
7f
a0
91
9b
8b
8d
8d
b7
71
65
7b
9e
65
95
95
72
76
94
8a
98
a4
5d
6d
53
90
98
8c
6b
96
9c
7c
9c
86
7d
6d
a7
65
94
92
9c
9a
a2
6c
72
ad
a0
af
bc
89
9d
6d
7a
a1
76
94
a6
55
a5
82
a1
6e
92
80
83
59
88
85
84
80
84
a1
81
7e
93
aa
91
b5
8f
72
ae
92
72
a4
82
88
89
8a
84
8c
ba
5b
76
ac
87
89
9c
6b
83
91
99
79
91
93
63
85
8c
87
8b
9c
85
7f
9b
9c
7b
a4
99
7b
62
8a
81
74
7c
66
8f
51
a0
74
69
9e
aa
7e
ba
a6
7e
b3
8a
76
69
7f
94
95
bf
77
a0
7f
c5
85
98
a1
91
99
8b
9a
a5
73
8f
8c
97
9a
7a
93
7f
76
8f
6d
a8
b3
9e
9d
8f
99
87
81
94
8c
9f
a4
7f
93
ab
86
6a
9d
90
ac
78
79
8e
61
98
98
61
85
94
8f
6c
76
a8
9a
7e
8b
8b
74
81
6d
a8
85
84
b6
89
ba
aa
96
60
94
94
5c
77
9a
93
94
98
62
9d
7d
92
a2
70
6c
94
8a
8a
87
78
a0
a6
95
9e
99
86
8f
a4
81
a9
86
b1
84
b0
95
75
82
78
af
78
84
8a
92
8c
7d
8a
70
af
96
98
78
9b
80
8c
97
a9
83
6b
80
a7
8a
a9
85
4e
a2
ac
8d
92
8d
7e
c6
7b
85
82
78
85
8e
62
ad
ad
aa
8d
94
a5
81
91
78
8c
87
94
a8
74
81
74
7b
62
a1
a4
96
ab
94
8d
80
73
74
7e
84
83
6c
98
72
5b
87
7f
73
9c
76
7b
79
70
a6
8c
74
78
98
7c
78
a6
6c
91
83
a5
50
87
7b
a1
6d
82
8b
88
60
98
8e
7a
78
72
77
96
74
8e
80
a7
67
a1
81
8f
7f
80
7e
95
96
7c
84
6d
89
b1
6d
81
6a
8e
8d
87
6c
68
79
a9
a4
65
a8
8c
8e
98
97
8f
71
8e
b0
80
83
8d
74
86
81
70
79
8c
9c
79
94
b0
92
87
87
6d
8b
c9
85
a6
7c
6c
65
89
71
8a
8c
bd
6e
75
97
83
93
b6
70
8b
76
bd
78
5d
be
62
65
85
99
85
53
9f
ad
b4
5d
af
9c
b0
73
a7
b8
99
91
7a
6a
65
85
98
80
80
8b
b5
ac
73
71
7b
98
89
ae
61
99
8b
bb
6d
9f
8a
aa
7a
73
8c
88
71
a3
94
7c
a1
60
8f
90
99
79
8c
6a
95
7e
97
93
88
51
8e
a6
8d
91
89
8c
5c
80
7b
93
9b
a0
6f
8b
86
bd
6c
96
56
85
92
55
84
6a
8a
79
b4
8f
99
bd
87
6b
ae
75
52
8b
a5
7a
72
89
98
89
97
a1
ae
81
80
99
89
73
9f
97
98
a7
8e
81
ad
8f
76
95
65
93
6a
80
75
80
8a
78
82
b5
71
9d
9f
ad
93
aa
7e
8d
8f
70
ae
8e
6c
96
83
82
7e
6c
87
81
98
86
8c
85
a8
8e
9d
8b
a3
65
a0
8e
7d
98
a0
87
66
76
94
7b
ad
a4
85
7c
96
a9
85
97
7b
6d
90
75
70
83
83
9f
a6
90
ae
a4
a3
8f
73
7e
8d
99
b4
75
73
92
66
8c
a5
a3
91
8e
8e
8a
82
ae
90
b8
6e
73
85
59
8d
79
86
9b
9f
9f
91
89
7b
6c
6b
67
9e
8e
7a
9a
9d
87
94
90
9a
aa
94
6e
9d
86
6e
93
9b
93
ab
80
a2
8a
73
7b
98
89
96
75
94
7d
7e
95
7f
bb
73
a5
91
78
8b
95
86
78
78
b3
88
82
aa
83
76
86
79
87
73
78
78
8a
7b
99
9d
99
7d
8b
85
73
94
b1
76
98
a5
9b
7c
85
81
70
70
6f
7e
9e
94
9f
c7
95
98
82
56
99
7f
52
5e
bd
84
8a
81
9a
bb
95
62
77
7c
7f
ab
71
8a
a6
9a
7c
5b
64
77
83
8d
7f
75
a1
9c
89
b8
88
8e
81
84
a8
7d
87
c7
9c
8d
9b
c3
68
a1
88
9f
98
8d
9a
7a
85
63
a5
ae
91
6e
8c
89
9d
80
a7
78
68
74
67
73
a4
a4
b8
64
94
9a
98
9a
a4
89
86
9f
92
67
93
85
8c
98
9d
80
a3
81
69
83
87
79
7a
6f
7e
77
94
9f
90
a9
78
71
91
80
ac
a3
b4
92
97
80
96
8a
89
7e
93
92
81
88
75
a0
82
a3
92
58
71
9c
81
85
83
76
70
72
b5
8c
92
92
86
7b
71
86
89
88
8e
8f
95
90
a1
94
ab
7e
9b
9e
90
99
6b
9d
89
71
9b
97
8a
8f
9a
a3
64
82
a1
9a
86
a9
94
70
75
b4
62
8d
5f
90
92
79
b2
70
8e
8f
82
80
90
6f
8d
7e
64
83
92
94
82
9f
87
94
83
95
9a
96
8b
85
8b
9d
7c
92
9b
8d
73
9f
8b
8d
90
9e
8f
8e
9e
98
7e
8b
74
8c
95
79
9d
92
9d
76
85
a2
88
a1
8b
8c
7f
7a
90
a5
98
8d
a3
75
88
9c
82
92
7e
8c
92
8b
83
77
91
91
94
7d
8a
8d
97
6c
a8
93
95
88
ad
72
97
a0
b0
66
96
8f
80
89
62
87
78
76
9b
ac
6b
5f
8d
8e
af
8c
8a
9a
7f
79
a9
6f
8c
83
a4
92
92
97
8c
7d
93
83
93
88
8c
8f
a3
8f
95
a5
86
95
8c
6b
82
93
93
ba
76
5d
a8
8d
66
94
90
91
9a
7c
70
67
87
94
8d
a0
8c
8a
91
8e
ab
76
a4
57
86
9c
86
6d
90
72
98
84
87
8f
75
73
99
78
b9
92
96
7e
bb
a1
80
7d
92
a3
90
96
95
96
8d
9e
8f
8b
6e
a8
67
8c
a1
86
8b
86
91
84
8f
78
90
72
7c
97
7d
7f
7f
6a
95
78
9c
99
9d
88
84
82
86
7d
a7
86
7d
53
92
85
9b
8c
75
7a
83
63
6c
8a
7c
82
b2
88
89
6d
7f
70
5d
89
78
98
77
91
83
92
8e
7f
9b
7f
93
71
90
9a
84
97
97
88
9a
7d
a5
84
7c
90
97
97
90
74
b3
8c
a1
85
96
83
95
8c
8c
a8
7d
a6
8b
91
93
a3
9b
86
b0
7a
8e
8f
63
94
86
7d
92
a8
89
68
90
99
6d
89
82
87
8e
a7
6b
68
7b
80
90
85
84
b5
70
93
4c
9e
8e
7e
74
89
a1
cc
93
6e
82
6d
a0
99
78
79
89
a3
94
70
8b
88
93
9f
98
81
7b
9f
a1
98
a0
7b
80
9f
ab
88
61
92
9d
89
7d
95
96
9a
9f
8b
ba
8a
a4
a8
62
9c
7e
a4
a1
95
c1
85
a2
6f
88
7b
a9
6a
a5
93
9f
99
b7
95
a0
88
86
84
79
96
86
7e
83
84
7f
7d
81
9d
90
7f
7c
9f
8f
96
7c
ac
84
8c
75
8f
7b
87
8f
8d
78
86
aa
73
a3
77
9e
9d
a2
8c
83
71
87
7b
7e
70
77
7c
85
7f
93
80
7e
9f
7c
91
8d
ad
9c
8b
a3
96
8f
88
90
98
80
a8
8b
92
6d
a0
83
77
88
90
9f
81
93
86
82
9c
75
ae
90
a8
a9
84
ab
8f
90
9b
79
8c
7e
7e
83
91
91
88
a3
8a
89
91
66
8d
98
7b
71
8b
8b
8a
67
8d
90
90
7e
a4
a2
9b
7e
8c
7c
7b
90
94
8c
81
99
a4
73
7d
94
74
86
68
a6
9b
8e
90
88
71
81
89
86
a4
62
88
9a
9b
9d
8e
91
93
ba
71
8b
b7
95
91
8d
9a
85
8e
97
54
81
8b
97
99
8a
82
74
87
7b
a0
95
7a
8a
88
91
75
71
8e
6b
8a
88
88
a4
70
88
6e
94
94
71
87
92
72
79
8d
a4
82
91
87
81
97
8c
9c
8f
8e
93
89
7e
8f
83
91
84
85
7f
79
91
85
7a
88
7e
9b
6c
95
82
9a
75
8e
8b
78
83
7a
a0
83
94
9c
90
84
79
7d
96
94
97
8b
8a
a6
75
a9
a9
8c
8b
9f
6b
ac
91
9d
8f
7d
82
72
97
83
a7
6f
83
85
82
83
7b
a0
61
a0
8f
74
90
9a
7e
96
7a
90
7a
78
8a
89
89
7c
89
a1
74
90
91
8d
8c
68
73
82
93
7f
66
74
97
90
ac
87
a2
8c
80
6a
a3
81
61
7c
5f
8a
7d
a1
7b
2a
8f
89
b4
59
5f
a6
62
a4
54
a9
89
86
87
85
b9
c0
ae
92
75
80
a7
8c
96
52
98
ab
78
90
b1
76
91
7f
a8
9d
7f
71
98
8d
a5
72
8c
8f
a2
81
68
7c
85
86
88
a5
93
8f
bc
77
a4
9f
c4
98
80
8e
71
86
77
87
b8
72
9b
91
9c
6e
b6
89
9f
97
8a
9a
b2
a7
7d
aa
8b
82
7f
81
77
6f
9d
8e
98
7e
9b
85
99
84
96
76
ac
9d
87
7f
74
6c
9b
79
86
7c
93
8f
7f
91
87
88
83
8b
9a
89
a3
8b
b5
7d
8c
84
77
6c
8a
86
9e
a2
94
82
9a
95
86
9d
9c
83
85
9b
9d
9a
8b
83
9c
99
a5
95
98
7c
87
9a
91
83
97
9a
80
88
a4
73
92
93
85
81
73
9b
81
73
a0
89
88
9a
74
9f
89
79
85
98
98
7d
80
a6
92
86
82
7e
70
65
74
7b
79
a3
7f
8c
8e
7e
85
ac
9b
aa
af
8f
98
84
81
83
7e
8f
8f
8d
6d
a5
86
7d
80
7f
ad
91
8f
87
8e
99
85
8a
98
86
68
93
91
8f
93
84
92
81
93
7f
77
94
83
92
7f
91
95
9a
7d
71
7a
75
87
9b
87
7c
94
79
7d
8e
81
87
7f
8e
9e
68
70
8c
96
85
92
8d
83
73
79
88
a1
92
88
9a
8e
74
85
97
93
99
9c
a2
72
8c
96
7d
63
82
ae
8e
89
89
75
a6
93
94
9c
85
ab
73
8e
69
97
70
80
a0
75
6d
92
a6
7f
5f
7a
a2
ac
a6
65
c3
91
84
9a
9a
81
ac
7b
7c
8c
b0
8e
6e
94
bd
a6
9e
94
7f
9e
83
92
86
8d
99
a2
a1
77
6d
74
7c
91
8a
7b
84
6e
92
98
9a
60
89
6b
63
a7
8f
9e
72
a5
62
69
97
73
a3
4e
8e
6c
9e
91
67
8e
a0
86
75
7f
73
7d
84
95
70
9a
8e
89
87
8c
94
7b
86
7a
87
89
9d
80
56
89
80
93
67
92
ac
6b
92
64
8a
74
76
6f
8b
ad
b9
a5
78
6f
89
92
95
71
81
94
ad
70
73
b5
7a
7d
93
9c
8f
91
86
ad
91
b7
6f
7e
98
9e
97
74
82
86
7d
8d
a3
76
a1
90
77
a6
6f
aa
98
70
6a
88
95
9a
7f
bb
75
96
90
97
5c
98
7c
97
90
a1
9b
af
90
9a
a2
71
8d
92
8d
85
8d
9c
61
73
85
b2
94
7a
90
8a
77
91
8f
8a
82
92
82
93
88
8b
88
87
84
80
7e
82
8b
7c
8f
86
a0
a7
8d
95
66
98
9f
8a
76
77
99
83
9d
7c
75
89
8b
88
80
7c
9e
6f
9b
83
92
9d
93
97
a9
88
ab
8e
7f
9b
99
79
96
85
8c
86
83
7a
82
88
88
80
75
68
87
89
7b
65
98
a6
9f
70
8b
88
8e
98
9d
9a
8c
ac
69
8d
92
83
a2
83
7c
9a
a6
7a
85
6e
75
8b
8c
8a
58
8d
82
7b
9a
6a
9b
74
a3
91
5c
8a
90
8f
6b
6d
6c
a8
7b
8d
b1
b6
7a
99
84
8e
6a
ad
7b
9c
93
8f
8e
97
79
59
93
79
8f
8c
7b
84
8e
90
7e
9e
9c
91
7e
94
9f
7e
9f
8a
ac
75
75
97
92
87
93
ac
7e
92
8c
90
84
63
84
93
79
80
85
ad
9f
6f
71
95
81
95
93
9b
8a
9b
7c
9d
64
a1
a6
88
88
99
62
a0
84
99
88
8f
98
87
b0
8f
85
73
52
7f
81
af
8f
8d
96
59
5c
94
96
94
7d
82
a7
a5
9e
7f
9d
ac
82
8b
97
89
90
9e
75
7b
a9
8c
6d
8a
aa
a2
76
7e
92
a2
85
89
a1
9d
a4
92
a0
98
8d
9a
a4
97
95
6a
81
73
ad
8c
8c
81
99
76
72
91
8e
9c
8b
a6
6b
61
80
9c
a6
5c
9a
6f
98
76
5f
ae
ab
82
8a
a0
a5
68
a4
93
b9
99
9d
7d
70
71
95
99
80
8e
8e
9c
b0
5a
94
8b
77
83
bc
77
9f
79
a1
7f
57
8e
74
90
9e
b9
99
84
e1
e9
9c
75
5e
98
6e
80
ad
bf
a3
83
70
81
91
7d
94
90
88
97
72
a7
aa
a8
8f
7b
87
9e
9f
83
92
5f
a2
8e
79
89
88
8f
80
73
95
a7
a7
94
a3
7c
8f
73
9f
58
80
c0
8e
58
8c
ad
71
af
99
71
99
95
79
7e
55
62
be
7e
b4
84
7c
61
95
69
87
92
84
99
89
b0
b0
82
7d
59
7d
7f
ad
95
86
99
aa
88
78
8b
63
96
c1
d6
99
9f
a9
b4
93
95
31
a1
5c
8b
a4
aa
b5
a3
9b
70
9f
b0
9b
85
94
99
78
97
94
c7
98
88
7b
a1
a6
99
a5
68
a2
86
83
a3
99
8b
78
64
62
98
af
ae
a2
93
9f
95
70
5a
96
b0
8a
70
93
97
69
a2
5f
9b
8c
a4
87
85
72
6a
a6
86
99
8d
a3
7c
bc
83
8b
a5
80
8e
91
a4
a2
96
77
6d
a2
65
9c
71
78
a3
93
7a
8a
77
7c
b1
aa
b8
9b
8c
83
b3
8b
a2
76
96
73
6c
91
b0
7e
97
97
87
51
d3
75
79
86
70
8b
79
93
aa
8e
70
96
92
a6
98
8a
79
93
8a
97
7f
8b
87
71
84
80
8b
8e
83
9c
9e
67
97
81
6f
8e
95
73
7a
6c
88
b7
84
63
85
9b
aa
70
53
b7
89
92
8a
ad
87
b0
95
b8
92
81
aa
a1
86
c8
af
94
6f
86
64
9c
50
a2
92
76
aa
a1
68
73
88
95
99
8c
73
89
92
71
ad
a7
86
58
c0
86
b8
9c
b3
7d
a0
9b
ad
80
c6
8f
75
b1
84
ae
89
7f
ba
83
5f
9e
96
88
9d
78
9f
98
82
ae
cc
aa
82
7e
9f
75
66
9d
88
a8
41
8e
92
52
af
7c
a1
7b
7d
7b
99
80
79
88
ad
9b
91
87
6e
82
64
9e
a1
58
7b
8c
7f
ab
74
9b
81
98
bc
69
8e
8e
9b
9e
a4
7e
7c
7f
7f
81
8b
b3
92
9a
8f
9a
69
7b
a2
9d
95
5f
7d
85
87
5e
6b
9d
7a
7e
a2
90
76
75
7d
5f
7d
a5
87
7f
98
97
9a
a1
8c
92
73
96
a7
b6
a0
86
65
92
6c
83
a1
73
73
8b
7a
9e
88
67
7a
6a
62
9c
9e
ae
90
86
a1
8e
9c
87
8a
86
96
b6
97
77
94
65
79
77
7a
7a
96
79
6f
84
73
95
77
93
91
7e
98
b8
8c
a4
89
89
79
8c
81
97
4f
67
99
af
8a
af
78
4a
6b
76
bc
97
8e
71
67
84
74
71
76
a9
64
96
99
8a
76
94
a7
73
b6
90
7a
aa
8f
a1
b2
93
a4
a5
7c
78
83
8e
8d
75
b1
90
74
7b
76
ae
a0
8f
80
a2
97
82
a4
73
d4
86
70
98
90
6a
88
83
97
ab
5d
bc
a0
4e
69
98
9b
81
ac
7a
67
90
d2
86
84
8e
97
89
6f
8a
7e
a9
87
65
91
7c
8a
9e
8d
71
76
6b
7a
a5
77
74
7f
81
8e
60
61
92
b3
8e
7b
aa
96
8f
87
4d
89
d8
87
85
8a
95
a5
9e
a3
9c
6c
a8
83
9e
c7
70
7f
63
86
97
97
87
6c
9d
6a
85
70
9b
79
6b
86
7e
aa
a7
8a
75
78
90
70
b8
8f
7f
7b
96
7b
8d
6a
88
67
5f
88
7c
84
90
90
82
8a
a5
77
8a
83
a3
8c
a7
83
a8
6a
ac
69
98
90
8e
98
8d
95
9e
6d
98
84
94
48
8a
80
5f
9c
8c
94
91
98
7e
7e
60
94
8a
80
82
6f
86
56
7a
95
85
7c
a4
71
86
90
96
9c
6f
a4
6e
95
7c
85
8c
71
89
91
85
aa
99
94
a0
80
67
83
9b
6c
70
95
65
91
6b
aa
78
9f
7f
64
53
8a
a4
70
8d
9a
9d
8f
87
9e
72
84
67
92
90
9a
76
81
88
6b
7b
6b
9e
91
65
7d
6b
75
ab
9c
a1
7e
95
c1
6e
aa
83
97
9e
a1
79
99
7c
99
7e
8c
ad
8e
96
95
a2
6c
6e
9e
97
82
6b
7d
7a
73
64
7f
9c
6d
82
9a
96
8b
6d
76
63
78
a4
83
77
a6
99
99
ab
8b
7a
7e
7c
c1
b0
9f
99
7a
a6
63
7e
96
77
6b
7c
84
99
91
66
7c
61
6c
88
9f
b5
a3
8a
9b
96
7f
91
8b
8e
89
b6
a4
87
84
6d
7a
7a
86
75
8d
72
84
73
75
95
92
99
8f
84
9f
c0
9c
9b
95
82
8b
88
8e
92
67
77
91
9d
90
b4
6f
60
69
85
b7
a3
87
89
72
93
78
79
7c
ae
6b
a6
8b
8a
7c
8b
a3
78
a8
8d
7d
9c
88
a6
a6
8a
a4
9d
79
69
90
98
8e
86
ac
9c
6e
73
74
a6
9a
8f
81
a9
94
72
ad
6a
bc
8c
82
8e
8b
6c
91
7a
92
bc
58
b3
a6
5f
76
90
8e
91
ad
8f
7a
8c
d3
7e
81
76
84
89
87
9d
87
b3
a1
75
89
8c
83
95
95
73
8e
6b
75
ab
6d
78
85
92
9d
6b
69
a6
a3
aa
70
a5
8d
83
7c
67
84
bf
8e
95
8d
9b
ab
91
99
a9
77
90
81
8e
b7
6b
8d
82
86
ad
95
86
6f
95
68
81
88
a4
7d
81
9d
87
b5
a1
68
8b
72
78
8b
a9
a7
83
7f
91
6b
95
75
81
69
6e
82
83
7f
8c
aa
91
96
b3
8a
93
87
a0
88
88
7d
8c
75
a1
8e
a3
8e
a0
a7
9b
8a
9b
75
8c
9f
87
5e
81
8e
6e
75
76
89
97
ab
8c
79
62
82
93
83
81
7a
94
5f
8b
a0
74
7e
99
8d
85
93
92
95
80
ad
68
9f
85
8d
93
8d
8a
90
97
91
8c
9c
9e
76
66
9f
97
8b
68
93
6b
95
7d
a0
83
96
6c
6b
59
9c
af
72
8e
83
9d
96
83
8b
6d
6c
75
8d
8b
9c
7e
92
79
69
6c
78
a7
a6
75
8e
7b
7e
82
8e
9a
92
8d
a5
74
a3
86
8f
95
a0
7b
9e
80
9d
7d
80
96
85
7d
7a
99
88
79
9d
9c
82
5d
86
83
71
6d
77
96
a2
87
9d
a5
74
68
6c
61
8c
a2
bb
85
92
8f
9a
9a
a0
81
7d
7c
ad
b2
a0
87
91
89
6a
87
9a
72
62
92
8b
97
91
7e
9f
69
51
9e
ac
9a
92
b0
a8
9b
90
92
6e
75
84
b5
a0
7a
99
6d
73
74
aa
78
92
82
86
78
83
83
97
84
7f
84
8c
ad
95
9b
96
8c
83
88
83
8b
65
6d
8c
9e
93
ab
68
74
70
93
aa
af
91
82
73
a4
72
92
82
9a
77
98
7e
90
8e
8d
93
6f
a1
95
92
a6
90
a6
a5
88
bd
a0
7b
66
94
a3
80
83
b2
9d
76
78
82
af
98
87
79
9e
96
65
a0
77
c1
96
92
93
85
7b
9c
8b
93
ad
78
b1
96
60
70
96
b9
8d
9d
8f
9b
9f
c2
92
8c
76
97
6d
85
94
7c
96
85
7d
82
83
8c
94
8e
8f
8d
7b
7c
b3
8a
7b
94
96
85
82
78
a0
b2
96
89
ac
a4
7c
82
64
77
ab
96
83
7c
97
9e
8e
9b
7e
7c
99
95
9a
97
9b
7a
7c
97
98
92
74
88
7d
65
9e
81
98
78
76
9c
75
97
9b
81
78
82
89
8b
a5
7e
b4
a9
91
80
87
8b
7a
6e
83
76
80
7e
9c
9f
a8
9a
b5
82
7c
9d
a7
95
a1
99
90
83
91
aa
b8
7e
7c
a4
a1
99
a7
6a
9f
96
96
78
8d
92
82
93
88
7f
6f
92
9a
80
69
86
8c
71
80
8d
76
6a
74
99
89
96
89
82
9a
8e
a4
a8
67
8c
73
86
87
97
82
93
99
97
bc
94
95
90
8b
92
6b
86
a0
7d
91
bc
8a
99
8d
92
78
83
68
7c
88
8a
90
83
7b
90
a8
9b
79
8a
8c
84
8d
a8
89
9c
8f
97
84
8a
73
9c
99
83
7c
87
53
86
71
80
79
8d
7b
c1
7b
7f
7c
aa
97
7c
94
79
8c
a2
9c
9b
87
9a
92
7d
9c
6a
96
c4
82
7e
71
86
73
ad
87
85
90
72
7d
a6
a4
96
65
69
74
a0
b4
b1
99
9e
8a
99
a2
9d
a0
99
82
b3
a1
a5
79
80
8f
93
ac
90
6c
72
81
6a
80
a9
94
a5
54
7c
95
96
ad
82
96
7f
81
66
95
88
8f
73
8f
97
84
94
5a
7d
74
9a
9c
9f
7c
80
74
80
97
8d
7c
99
88
97
8a
9c
98
95
a4
97
92
72
a1
76
6a
8a
a3
90
aa
61
83
96
93
9d
b4
94
5d
74
ab
6a
82
95
95
61
97
7f
82
89
91
9f
77
af
96
89
8c
88
85
92
71
c8
98
80
8e
81
9c
8a
7a
a9
92
78
6d
89
aa
a2
95
5d
a7
91
6b
94
89
ba
7e
aa
79
90
82
89
84
83
95
6d
bb
a0
68
71
8b
94
93
a1
9e
95
9a
82
78
77
8f
a4
87
7d
94
7a
8a
8d
8e
62
83
a4
a1
8f
a6
78
84
67
83
8c
8e
91
a0
91
67
9a
84
9f
62
99
62
a1
81
86
a2
87
8d
a3
87
8c
79
ae
8f
79
69
76
a4
79
8a
a2
a4
a1
6a
af
a2
95
81
a2
91
7f
76
8d
a6
96
7f
9d
78
7b
89
8d
78
a8
86
9d
9d
70
9c
94
5c
9d
96
77
87
5d
99
47
71
78
84
a5
92
6a
98
84
8e
99
9f
7d
a7
ad
79
8c
8e
8b
a5
6f
82
9e
7c
8f
96
76
9e
77
8f
78
99
8c
89
87
86
9c
96
ac
76
8f
6b
85
8c
77
79
73
5e
6e
89
a2
8a
8d
91
81
8f
83
b0
8c
82
94
79
80
86
9b
7d
88
8e
74
aa
9c
98
a6
a3
94
6d
86
82
79
6b
b4
7f
b8
7a
7e
71
83
82
7b
71
78
84
77
77
92
b4
8a
6f
80
a0
79
90
a7
8e
99
8f
a3
8c
a1
94
9e
9a
84
73
87
d0
c4
93
56
74
79
a0
95
a7
88
86
80
7a
79
72
7b
84
61
8e
7d
91
8a
82
7e
85
67
87
ac
ac
94
97
81
6b
73
69
7c
87
8f
8b
6b
81
6f
9a
6a
b1
a8
c9
51
79
75
85
80
84
b8
a8
8d
8f
90
9e
7f
72
56
8e
53
94
71
95
71
6f
b0
77
8b
a6
d5
d7
80
77
b1
6b
7c
5b
7f
96
91
a7
a4
96
90
97
72
8b
af
94
6f
7e
6c
8b
96
ab
a0
94
83
97
4d
90
54
8c
a2
66
98
7c
9b
8b
79
87
75
7b
6e
89
7b
77
79
7d
62
8d
8b
7a
81
a9
a0
85
af
6d
6e
53
79
69
93
88
89
c0
7e
62
8b
b9
81
72
68
a3
97
99
9d
a7
b6
9e
80
84
ac
a9
94
7b
a1
8a
90
84
6a
9f
7d
78
a3
89
9b
7f
73
ab
77
a3
8d
58
63
83
7f
a7
67
8b
97
6c
76
95
8a
83
9e
81
60
89
6a
c0
91
95
80
9b
a0
91
5b
8e
74
ae
aa
77
99
91
76
7c
9d
6d
6d
77
6f
85
7a
98
8d
6e
5d
7e
92
7c
ae
94
92
7a
9b
81
7d
54
68
79
8b
77
84
a8
97
ab
89
aa
8e
92
69
8d
89
95
8f
a1
b7
85
92
8a
c1
88
97
85
8f
76
56
6c
80
94
6c
86
b7
8f
91
7e
98
83
74
9f
9a
82
75
72
aa
ae
85
90
77
94
73
8d
8d
8c
9b
7e
81
8d
95
a1
b5
80
a9
7e
8d
7a
4d
80
7c
90
a1
75
7a
7d
96
8b
76
70
8e
a7
64
7d
82
84
a1
5a
68
7d
bc
9f
a3
89
83
ad
92
9d
79
3d
9d
77
a8
5c
96
8c
88
99
85
a7
ac
77
81
9b
9f
81
85
76
9a
91
8f
75
a8
8e
61
a3
7a
74
78
77
5a
97
74
aa
a1
74
6c
92
94
9e
8c
93
7c
8d
78
81
bf
9f
71
96
73
95
87
81
a5
92
80
aa
a1
90
8c
62
7e
b0
8e
95
7c
ac
6c
a5
6a
98
8b
a9
84
a4
84
a6
89
92
85
67
82
8f
8c
7f
a2
57
76
ba
75
a7
7c
ac
75
a4
a0
99
85
55
6d
92
86
7a
97
91
93
6c
72
a8
8f
73
72
85
84
7d
88
94
aa
90
71
6c
b0
99
68
91
97
d1
86
7e
97
ae
88
7d
bb
5e
a7
9d
92
c4
a9
7f
8e
53
5d
72
84
a2
47
a9
76
7e
95
95
ae
73
94
96
90
7a
8a
9c
ab
8b
a3
76
8e
a0
84
86
73
6f
85
73
88
86
84
83
98
7c
77
7a
7f
8e
82
74
6e
84
7f
83
74
9e
8e
8b
85
9b
7f
7d
91
71
a0
7f
88
66
6b
95
97
73
7b
8a
8f
87
8f
8f
93
aa
8a
8b
86
ab
7a
9b
9f
88
7e
91
83
a3
7d
81
89
81
9a
91
8e
7e
85
a0
94
a6
6f
a4
9c
80
81
8d
80
85
7a
7a
9b
95
8f
95
99
67
87
7f
67
7b
94
9b
75
a1
9c
9e
90
8e
84
95
78
92
ad
88
b0
8c
73
7f
8f
77
8e
87
88
75
91
86
82
96
7e
9b
a4
8d
9a
8f
9f
9b
90
68
7f
74
98
78
8d
91
6a
a5
73
90
7b
99
92
9c
89
7b
7e
9a
80
8d
92
b0
87
6a
a1
b3
98
88
8d
85
81
7d
94
8b
88
85
b8
62
88
89
78
89
73
97
a0
90
8e
90
9e
89
7e
98
6a
a2
7a
89
8d
a9
87
90
82
9e
95
8e
79
7e
8f
88
65
99
77
7d
77
a1
77
8a
a3
7e
71
6b
71
7a
8a
9d
92
92
70
70
80
91
87
7e
a3
7a
b2
9d
8e
a2
87
70
82
6c
9b
83
b0
8e
7e
a0
8f
87
92
6f
c4
90
98
87
96
a5
ab
96
90
98
86
95
ab
97
8d
7b
94
77
97
87
83
8a
7d
9a
74
8b
7a
7d
88
83
8a
6e
7e
86
72
63
61
96
85
9b
8b
99
8c
88
a4
91
74
8f
83
72
ba
62
9c
80
89
a6
88
76
71
82
6c
83
84
8b
8b
8b
88
88
80
80
86
ac
7e
9a
73
99
8e
8d
9e
85
84
a0
9f
a3
8c
92
8a
7c
7b
80
8d
80
76
6c
79
8f
7a
80
90
a9
82
a0
72
80
7d
77
a5
7d
8e
80
89
8e
79
7e
75
99
a9
87
85
93
8c
63
99
92
97
9b
92
8a
a8
b6
a9
9e
ac
77
9a
86
8b
82
90
a0
79
7a
73
96
aa
8d
93
a3
7e
95
6f
8e
7b
7b
95
6d
82
86
87
ae
89
8c
a3
80
86
94
78
79
90
a7
77
8f
92
7f
90
8c
a5
92
87
81
80
9e
7d
90
9d
75
b4
70
84
7e
77
84
89
85
82
97
84
79
93
7b
8f
87
6f
7f
7e
8b
6b
92
ad
a0
99
86
9f
a9
73
b0
98
8b
81
77
9d
74
7a
92
81
94
90
88
91
9e
6b
9b
94
90
78
8a
85
7e
82
8a
89
82
92
95
90
89
a5
90
6e
77
8a
9b
77
98
a5
7b
92
9a
8b
77
97
88
95
6d
8e
74
6d
7d
85
7b
75
9e
98
71
7a
95
88
63
8e
95
98
99
ab
a5
cc
8d
a2
a3
a6
7f
92
78
92
94
62
b4
a9
83
77
8c
9f
75
9a
7b
8e
85
86
a1
a7
a6
a0
8c
98
93
98
a5
7f
94
8c
9b
82
a8
84
75
a5
6f
7d
74
92
86
84
9f
95
89
7d
77
8b
8d
71
87
80
6e
9a
96
8b
6b
72
6a
80
6b
8a
7d
7d
7f
8f
b0
6f
67
8d
80
8d
92
91
a3
7e
77
85
75
43
8b
7a
9b
7e
8e
85
91
8b
a2
70
98
9a
aa
98
9f
99
80
82
8a
7b
6c
99
87
a2
a8
56
a6
8c
80
71
9f
97
a6
72
85
a5
a4
a6
8e
a9
ab
7b
7a
ae
9c
a5
7a
a4
75
76
a7
93
9d
91
6e
9b
88
66
94
88
90
ab
98
9d
6a
82
53
89
9e
78
81
8e
9d
9b
a4
6e
a0
89
88
9f
7b
84
9c
85
85
77
a0
9a
82
7d
9a
80
8b
97
94
95
7d
a1
66
96
81
99
7d
76
56
76
89
7c
9c
91
5c
9e
a3
7b
7d
99
7c
aa
8c
78
8d
67
79
85
6f
60
94
87
8c
71
a3
83
9f
aa
8c
a2
a8
7c
84
84
ad
75
72
a2
7f
91
86
85
98
7c
97
a2
81
7f
8f
79
87
88
84
95
91
8c
a5
89
86
82
95
9e
a3
95
79
67
65
90
6c
81
8c
84
87
8c
89
87
90
80
9d
93
8c
82
7b
74
b4
7e
99
97
86
9b
80
86
70
89
9c
94
8a
9f
8c
83
79
80
84
82
72
9b
7c
91
9d
9d
94
91
6f
8b
8d
83
8f
93
98
97
88
93
79
89
95
84
90
b0
97
7b
92
75
8a
a4
7e
8e
7d
95
90
78
98
9e
97
74
81
84
89
8a
8d
8b
75
92
89
ae
87
77
80
9d
93
89
8e
a0
7c
7b
7f
7d
82
95
6d
87
92
80
8b
79
7a
77
9e
64
91
a8
94
97
79
8a
74
60
a3
91
86
8b
87
89
54
81
8e
8c
8a
80
96
90
75
71
75
9b
5d
83
73
86
9a
97
5a
a2
8c
ab
b4
62
6e
9a
9d
87
b7
64
6f
75
a0
88
9f
aa
a4
85
9a
92
8d
91
a5
9c
aa
93
af
83
a3
98
b6
98
83
a5
ae
91
8f
90
8d
7a
75
b0
6c
93
7d
a2
86
62
92
8c
82
89
88
82
61
a5
9b
9b
a1
87
83
68
51
92
8e
6c
ac
bd
82
79
5e
9d
7a
76
ca
82
78
82
81
8e
5b
63
b7
90
84
6e
b7
98
9b
76
80
85
95
a1
6e
b5
ba
ca
a4
83
70
6a
75
79
62
a2
a9
74
92
90
5f
49
93
87
b9
a2
94
b5
70
bd
aa
8a
8d
9b
91
c2
90
9a
91
a2
a3
8e
7e
80
87
97
85
9c
72
67
7f
c7
6f
ac
88
8a
a2
91
96
b8
b0
83
95
74
b3
ae
ae
aa
71
9e
90
8e
99
9f
98
9a
a3
91
90
80
93
76
75
9a
8c
7f
7b
a5
8f
99
92
84
7d
9f
8a
85
97
88
73
75
74
81
76
87
78
71
92
99
83
7e
75
84
6e
85
70
98
7b
9a
9a
7f
9c
96
92
87
81
8e
90
90
84
84
a0
85
7f
9f
88
99
9b
8d
80
79
93
9d
9f
93
90
80
9b
90
7c
74
b7
7e
a2
95
a3
97
7f
90
95
93
90
88
8e
70
93
8b
8a
7c
81
98
87
81
9c
a0
9c
84
84
a2
8c
a2
98
79
7c
70
8a
88
65
7c
89
a0
93
77
90
88
95
8b
9b
88
7d
98
76
83
98
72
95
89
8a
af
96
7d
90
8f
81
7d
94
92
7d
71
b9
94
80
9d
9c
95
7b
7d
a8
82
83
92
ad
8f
86
7e
7d
ae
b0
97
68
96
86
8d
8f
8c
8a
8d
6f
90
75
99
a4
a2
98
85
8d
8d
8f
6f
92
7e
92
95
9f
86
a0
89
81
9b
91
7f
7e
78
9d
a2
9c
91
7e
87
7f
8a
88
8d
71
5f
8a
8b
88
ac
81
90
88
89
6d
70
a0
7a
a2
82
8a
9f
74
7d
8a
a1
8e
8d
99
8e
95
98
93
74
71
95
8f
96
8d
88
97
80
90
a2
94
a0
81
a1
99
ac
91
ae
8c
82
8c
76
79
af
83
97
8a
7e
8e
97
9b
86
8c
a1
89
95
77
76
c2
85
9e
6c
70
8b
85
6f
8a
9f
ab
79
89
92
ad
93
87
7d
8a
5c
84
90
7a
77
8d
89
a9
a0
86
9f
9a
70
78
87
7a
6c
60
97
6e
77
88
99
8a
98
a2
87
95
87
a7
ae
7c
7f
9b
7c
86
95
81
89
87
a9
82
5f
64
a5
9a
b8
7b
94
84
84
97
97
82
a0
a1
76
81
92
84
79
6b
ac
8f
a1
91
88
9b
68
c0
79
89
7e
7f
7c
72
95
96
9f
66
7b
b0
5e
93
89
90
7d
98
7f
83
88
b0
7a
9d
80
93
80
7b
6b
b6
81
94
94
74
b1
74
7b
94
8d
8c
7a
89
56
a2
78
87
87
8f
8d
66
86
90
6e
6b
6d
7c
78
9e
a3
82
73
a0
91
5c
65
7f
ad
7c
98
86
85
89
7c
87
8e
80
8a
7a
99
9d
8f
91
92
9c
92
86
72
91
94
82
a4
91
8a
8e
76
77
ab
8a
7e
82
9b
a3
a6
9a
82
a4
9a
8b
8d
82
8b
a4
72
a5
ad
76
88
86
86
a3
80
ae
73
7e
87
b0
b3
98
b1
94
91
94
82
98
90
90
8e
9f
8f
9d
94
84
8f
86
90
88
8c
9b
c0
89
82
aa
79
69
81
95
84
a2
8a
a2
93
82
86
92
84
92
7b
a4
92
93
7e
7a
9c
86
79
71
92
8b
94
b5
8c
80
72
94
7a
91
6e
83
76
9c
79
99
95
87
8e
92
9f
b7
a9
87
97
83
83
9e
85
a5
72
97
82
7c
83
a5
68
86
7d
9d
82
7f
88
88
7f
86
95
74
80
98
82
90
9e
93
9c
9b
85
96
86
96
a1
9e
92
c2
8d
75
8e
8a
9a
8e
82
ae
8a
75
99
99
73
70
87
81
7a
8f
92
a6
8a
82
68
77
86
7f
a2
98
89
92
6d
5c
85
85
92
76
88
79
ad
92
77
6a
74
a5
98
68
7a
73
7c
96
7f
83
8d
80
8a
bc
6b
86
96
82
96
75
7e
a2
79
87
a0
87
6c
95
6c
96
87
a8
7c
76
7f
69
9a
93
a1
94
94
8e
81
ad
96
5b
91
9e
b0
71
99
b1
7e
96
83
89
8f
85
9a
8a
79
7a
77
85
74
7a
9e
79
96
9e
81
5d
66
6b
8f
81
95
8a
98
81
86
95
7b
98
90
81
93
89
99
82
79
6a
7e
73
95
8e
9d
83
81
99
a9
a2
95
86
83
7f
90
7c
79
85
7c
76
72
8d
8b
79
94
83
95
8d
94
6f
92
61
9e
8d
8d
76
74
bd
85
88
84
8d
6a
98
75
90
79
94
76
70
87
8c
80
6f
90
8e
98
83
9f
7f
83
a4
60
95
8f
93
94
96
7a
90
7d
b9
7a
62
56
9c
70
79
96
7c
63
c0
93
6a
74
6b
86
9f
83
66
7e
65
71
7c
8e
8a
a0
78
8e
97
a1
86
59
60
af
80
79
56
62
a4
7e
8b
8f
af
73
82
95
70
a0
9a
99
79
76
a2
97
a1
7e
ac
9a
86
7e
6f
90
9d
9a
9a
a9
9a
87
b6
82
99
7c
7e
74
9d
7a
a5
73
7c
82
74
96
6e
91
9a
93
76
8f
7a
86
9f
84
81
98
80
a4
88
69
91
81
9d
75
50
6b
90
7b
67
7c
82
86
ad
7d
6a
71
87
85
9e
8d
75
9d
6a
84
7b
82
71
78
84
99
9a
96
85
82
86
9d
9b
9d
5f
7f
9a
9c
87
80
89
75
86
aa
72
9c
9a
9d
99
7b
94
97
84
8f
91
92
b4
8b
66
56
aa
b1
9d
97
a9
a4
8c
75
9c
89
79
a2
a0
c6
81
95
76
72
86
89
7e
9c
9e
84
66
8f
93
9e
94
83
8e
a1
86
97
92
95
8d
98
af
7d
9b
79
88
66
94
69
7f
97
a1
75
8c
90
7e
b2
a9
90
90
59
84
73
9a
6d
9b
a4
68
9c
8f
9e
7d
9c
a0
86
80
78
71
66
9b
b3
8c
7e
8e
9d
6a
a9
5e
ae
99
95
8e
7f
a7
90
78
74
95
8d
a2
88
a7
8b
a2
93
a5
70
9d
8e
83
8f
8c
6c
65
9b
8b
b1
82
58
90
7d
89
8e
5c
81
9d
b0
70
ad
ba
96
a4
9a
9f
af
ae
89
99
8e
5b
a4
98
7f
af
ad
74
a0
93
76
a4
6d
80
99
8e
88
81
a3
73
a9
8a
94
aa
b6
b7
8d
93
89
7a
9e
70
9c
8e
93
a1
7d
77
94
9d
8e
5f
a2
80
5c
93
a3
a6
7d
88
8f
a0
9b
ba
96
c9
81
99
96
a0
7f
b0
8a
6d
70
60
a3
94
85
bd
6e
94
91
77
8d
5e
79
58
83
85
85
70
7e
95
82
78
83
b2
7b
a5
90
66
8f
85
71
8d
54
a0
95
7d
6a
90
93
a8
ab
87
93
85
a0
77
95
73
6d
97
6c
5f
8a
a7
51
9f
ad
76
a3
9d
94
68
84
6f
d8
75
92
b3
89
75
7e
7e
9b
7a
95
9f
86
9e
96
7f
95
93
66
94
a5
8e
93
8a
7f
8f
8c
65
8c
72
74
7d
65
9a
85
7c
6f
9b
5c
7c
89
88
a8
c8
73
7e
9d
70
7b
6a
b6
b2
97
98
8b
64
70
6f
68
8b
96
8f
93
6e
7d
c6
92
a3
6a
7c
3a
a1
6f
a2
9e
90
7e
90
a0
8d
8e
89
92
a7
7d
66
92
8e
a6
9c
86
95
97
83
99
b2
c6
65
8f
8f
a8
8f
9d
73
72
68
85
86
a2
92
b8
a7
71
96
73
9e
a9
82
87
9e
a7
98
9a
94
8f
82
96
c6
a1
92
75
6c
90
8f
6e
81
91
8c
51
7c
99
b6
89
9c
bb
66
95
7d
5e
8d
9d
76
9b
89
83
b3
86
5a
97
88
aa
72
77
7e
79
b9
7c
95
7d
8d
8c
ba
87
98
a8
84
9c
b2
ad
93
a8
82
7f
ac
4e
76
87
91
93
73
71
9a
91
92
a2
93
af
8f
82
7c
8c
87
a1
72
a1
79
6f
7e
a6
8a
94
9c
8b
4f
e6
7f
80
8e
7a
78
87
9c
9a
9c
7e
a0
88
d1
90
87
63
9a
7f
b0
a6
93
8a
68
77
92
66
91
84
9c
ac
5a
aa
52
87
8c
90
6c
a3
71
81
9f
87
77
82
8b
8e
7c
51
c8
8d
8e
8e
97
7f
a7
8f
ba
93
92
af
a1
92
da
a7
98
82
a7
70
a4
4c
97
7e
78
a5
a1
71
77
98
87
9c
7e
81
7c
81
66
a2
9b
ab
6b
b6
98
b1
b6
b7
89
88
8f
b8
7d
c2
94
7a
ad
81
b5
85
88
bb
76
52
8c
7a
86
9c
72
a9
a7
86
9f
bf
a6
88
8e
8c
7f
8e
89
9b
b4
60
98
9d
6e
ad
86
ab
7d
68
82
7c
98
97
8b
ba
a5
88
a0
95
83
8f
86
8e
5e
b1
73
86
58
8c
b2
71
6e
5d
7f
4e
9c
7d
74
87
92
96
6c
6d
ac
5f
a4
56
94
a6
7f
77
5d
a4
ae
a8
88
63
4a
95
b6
5c
6c
98
a8
96
5d
a8
8a
95
7d
ab
8a
8f
aa
8c
ab
bd
70
9d
a0
ad
89
68
8e
67
a9
aa
af
87
9d
bb
7b
b6
7d
97
8c
80
8d
80
78
9b
8e
9a
6f
9a
9c
9b
a2
88
5d
9e
85
b7
a0
82
82
76
ba
96
a5
82
76
76
85
7d
95
5a
b5
8c
a1
98
95
7b
97
81
d9
b2
aa
8c
9f
7b
7c
73
9b
92
72
8b
a2
65
70
76
86
93
b1
95
85
97
74
91
7f
6d
63
7c
6c
7a
81
5f
89
91
aa
6a
89
74
a8
82
7d
9b
72
93
aa
92
86
85
b5
7a
7d
9c
a6
87
8a
77
8f
95
86
8b
5b
9c
74
5f
9e
8e
84
8e
81
93
88
77
bb
72
a4
5d
91
a2
8f
6d
7b
b0
9f
88
8c
88
98
3c
79
7c
73
83
85
86
7f
85
87
69
ac
ac
97
84
7b
9b
90
88
83
77
a4
83
79
6f
b0
75
7d
89
90
9b
bb
5d
76
87
78
91
b8
a8
a4
63
57
73
a4
94
88
a8
7a
c5
96
89
ac
8a
ab
9f
b9
83
8c
88
91
7e
92
7c
af
af
a7
70
73
74
99
76
6b
51
85
a1
57
5f
5e
a4
86
a5
95
76
8a
69
8d
9b
8a
65
7c
8f
8c
92
7f
98
a1
98
7a
82
90
86
67
62
94
99
86
97
b8
7d
80
b0
a4
84
6f
a1
66
73
71
63
78
5f
8e
81
60
9d
91
92
76
6e
8c
c5
ab
6d
7a
83
8a
84
58
54
b3
96
89
8c
aa
7a
7e
9c
9d
8b
85
4b
98
86
59
a7
7b
94
89
6b
b0
71
65
77
70
a3
73
bb
95
6b
9f
a2
ad
75
a9
71
93
71
68
9f
9d
7a
69
78
9e
52
b1
6e
86
7b
8f
77
7c
7f
83
78
8e
87
8e
79
91
99
88
9b
76
82
49
9a
ad
6e
94
7a
8b
58
83
88
71
7f
87
91
73
76
8f
56
8c
71
a2
94
7f
93
94
a7
ad
ac
79
76
6e
8f
98
6d
59
8d
8b
85
75
ab
6d
84
98
95
a4
97
a5
9b
93
ae
6e
9a
9d
a3
99
82
8a
56
85
a7
a7
8c
9e
b4
82
9d
84
a3
aa
84
78
8b
8d
7b
7b
b8
7c
95
bd
92
82
8c
7d
86
69
c4
ab
85
73
74
b5
6f
82
a0
7d
7d
84
82
8b
7a
8b
9c
a3
77
8a
88
95
71
aa
af
9f
8b
7a
a2
b0
7a
6c
7b
70
9d
a8
81
76
95
78
a2
af
9f
76
75
7d
91
99
98
71
99
88
7d
8f
64
7e
98
8e
78
84
91
93
70
91
87
65
91
af
91
7b
a5
b2
75
7a
9e
a6
8c
7e
70
7a
84
8f
9b
89
9e
70
6d
94
8b
78
90
7f
9b
96
8d
95
7c
b3
87
7f
90
8c
82
71
a8
94
7e
8e
a9
9f
4d
89
7f
6f
85
77
93
83
8a
82
79
a3
92
96
8b
71
8e
95
94
83
7c
88
78
74
74
bb
74
8c
99
93
90
a9
79
85
83
70
a2
be
a1
ac
83
6b
68
a0
a7
7b
a0
7f
b2
90
97
a4
81
a4
a1
a9
8b
8e
81
85
92
92
7a
8d
af
a5
7a
79
7a
7e
84
6c
73
9e
ac
5c
6f
72
8d
8a
9d
92
6f
92
76
89
94
82
92
76
7f
81
7e
9b
92
96
8e
97
b2
90
8b
75
85
81
99
78
cb
a9
76
9a
9e
a3
71
99
ad
69
72
97
98
87
82
97
6b
82
9c
a4
a8
8f
a1
93
9f
ad
7a
64
9f
97
8b
9a
73
ae
9e
75
8b
8f
78
6f
89
9b
96
87
9c
a0
8a
85
a3
8a
8f
a5
86
ba
83
7b
82
88
b6
7c
9b
a1
6a
8f
88
af
7e
98
86
72
99
62
8f
97
8e
62
70
9e
7d
8c
67
8e
7e
82
83
8a
89
9e
85
7a
90
76
a5
7a
96
74
b3
5c
7d
5b
90
9d
76
73
91
84
7b
8f
80
77
a6
87
94
6c
81
a9
5e
a5
82
a6
86
82
74
89
a6
93
b0
9f
75
5f
a6
b8
6f
63
86
94
81
8a
a4
95
83
a5
87
8e
af
a4
96
76
a8
67
ae
9f
89
84
78
8b
75
91
a5
ac
8f
98
9e
93
a4
89
84
97
82
8c
97
99
89
92
a4
76
8b
99
97
84
85
9e
94
70
a1
b5
92
8d
8c
99
a4
8c
a0
97
89
78
83
aa
8b
79
94
83
b1
88
83
86
76
98
94
9f
81
73
9d
8d
96
76
8c
81
97
84
8b
78
96
96
74
7b
85
83
a4
9d
89
6c
86
82
98
82
81
93
8f
79
9b
84
a8
8f
9c
84
99
8a
77
74
7e
9e
87
88
87
83
a0
87
98
a2
7f
80
a1
7e
89
7b
8f
7a
85
81
72
ac
74
9b
92
7d
81
a5
87
8a
87
8e
90
8a
8e
70
71
8f
b9
86
82
9a
83
a4
6d
94
98
8e
88
78
83
92
9a
82
7a
ac
8c
8d
92
6b
9b
8d
87
93
78
83
95
7d
74
9e
6c
8f
8e
ad
9a
a0
7a
95
91
62
99
9d
92
95
78
84
77
a5
a3
89
96
8a
af
8b
98
a9
6e
99
a0
a0
8a
a1
74
95
82
90
7c
9d
ba
ab
75
75
81
88
86
70
76
86
93
6d
75
6b
91
84
87
93
69
88
7b
9a
98
76
7f
85
8b
89
81
83
97
7f
88
7e
95
91
7d
97
7b
8f
7d
7d
85
8b
6d
a1
71
9a
a4
87
91
84
8d
99
7e
8b
7a
84
8d
94
7b
8a
72
8e
79
88
a0
86
8e
6d
9e
8b
99
93
70
8b
a5
7f
85
78
6c
84
63
98
9f
96
80
7b
8a
84
82
94
ad
7b
a4
a7
7c
8c
67
6e
a2
9b
8e
90
a2
7a
8f
96
7d
8b
8b
9f
88
7a
77
84
91
7f
87
8a
8f
9a
65
85
9a
6e
97
85
84
86
8c
7f
93
82
9e
78
87
86
ab
6c
7c
5b
91
98
65
7a
7a
92
79
9e
6e
81
a2
8e
a0
7d
92
bc
74
a4
7c
a5
96
69
84
8b
bb
99
ae
ab
82
64
a3
98
71
6d
88
97
6a
7b
a1
73
8f
a2
82
90
a5
a2
96
87
93
6b
a3
a3
9b
87
73
83
86
98
a3
9a
8b
9c
aa
7d
98
70
9c
92
85
8e
87
99
86
7b
9f
73
7e
9a
92
81
86
95
9f
74
ae
a9
9e
8b
73
80
82
6d
85
a8
88
76
8e
8d
94
a9
83
7c
7c
9c
90
96
8f
88
94
83
77
93
73
76
80
89
96
7b
7d
84
a0
8f
89
7b
7f
a7
91
a0
73
81
7b
6b
8f
75
84
a0
92
96
88
88
93
8b
96
8e
67
8e
9b
8d
73
98
9e
92
88
89
ae
9a
67
90
99
8d
96
86
8d
85
5f
87
8f
70
8f
8c
9f
7e
8d
93
be
91
74
7c
83
87
90
84
81
8a
85
a1
7c
9c
8e
75
92
81
8c
86
85
a3
8b
73
af
96
70
97
81
8b
a8
8f
9a
7a
85
72
87
8a
85
89
78
88
be
82
84
80
85
6b
90
84
96
84
99
71
99
80
8b
83
b4
62
95
aa
9d
92
85
95
80
8f
9a
a8
69
94
89
b0
64
92
94
87
a1
81
8f
a1
8a
81
67
79
94
a4
a7
ae
87
98
8f
64
71
a4
9e
a0
88
66
a0
7a
85
96
8c
85
7e
76
95
a2
8a
a1
7b
72
9b
8a
7a
93
7c
80
86
65
7f
78
8e
8b
6d
91
88
b9
75
88
96
6d
a1
83
9f
98
9c
79
8d
9b
94
85
72
96
9b
90
73
66
6f
78
9a
62
a6
9c
9e
84
7d
b4
9a
7c
6d
65
67
75
92
b6
cf
a3
92
9b
6e
97
6d
82
7b
96
8b
a1
85
7c
87
76
9f
7d
5f
92
72
b2
8f
8d
78
6e
66
93
8a
93
73
77
79
51
74
57
89
bd
7c
a2
8f
67
6e
a3
88
6d
7f
83
75
87
ae
a9
91
bd
91
9f
93
8c
73
80
7c
9a
82
82
88
6b
73
70
91
81
82
ad
71
95
b9
bb
9c
5e
80
c9
91
8f
9d
82
9c
a2
b5
a1
7b
4b
a3
7b
bb
8f
70
b7
84
88
83
83
be
a1
5a
6c
ad
81
85
8c
84
82
6f
94
a4
9e
ab
93
7f
7f
80
92
7f
a1
6b
7c
a5
76
92
ba
a8
a5
77
7d
8f
5d
69
6f
87
9f
87
a4
84
90
79
93
74
aa
85
7b
5e
7c
95
97
7e
c3
a9
aa
97
85
7c
60
74
98
99
89
a9
64
80
70
74
90
9f
a0
90
79
9e
ae
90
56
6d
a2
ba
a0
9c
96
99
a8
a6
8d
9b
51
94
8a
b6
9d
81
9c
91
ae
64
7d
a8
96
68
7f
8b
7a
98
9a
93
9e
74
8c
96
8a
8f
70
94
96
6e
a6
59
84
6c
87
a3
7c
8c
b3
80
ac
70
8e
91
7f
4a
7a
a0
87
83
bc
94
92
86
a0
9d
af
83
89
78
86
83
a6
a1
a5
97
7c
98
81
86
76
7c
8d
98
8a
88
83
88
99
91
a8
a2
94
7f
88
7c
a3
80
67
78
86
a0
ab
94
7d
99
8e
84
94
8e
7f
a9
7d
a6
97
75
94
89
a4
85
82
a2
88
7b
84
85
83
8c
a2
9f
9e
7d
8e
99
7d
a1
91
85
7f
85
81
95
a2
79
83
90
94
70
a1
88
97
84
92
81
62
65
74
8f
94
7a
89
94
8b
8d
94
ad
aa
86
74
71
97
ab
8c
a4
a7
9a
a6
92
99
85
54
6a
80
8f
6d
93
6c
76
8a
9e
77
77
a0
8e
93
95
b7
bc
51
6a
a1
ac
96
9c
93
aa
c2
a6
9c
81
56
ae
6a
bd
81
65
91
80
ca
73
a7
85
78
85
69
a3
7d
9b
9b
95
a1
78
79
8d
a0
a3
7a
84
65
65
9a
79
9b
87
a3
96
66
86
b9
83
a2
5e
85
7d
7d
68
56
a1
c1
5c
bd
83
7e
76
ba
9b
83
9e
90
89
90
a0
83
93
a7
98
af
7d
a4
76
8c
b1
9c
8b
77
82
6e
58
93
96
96
6b
7d
aa
8b
a6
b8
93
88
af
a3
6d
94
aa
8c
6a
7f
89
c5
9a
51
a0
8a
9e
9f
81
6d
87
99
8a
81
a5
8c
41
7a
85
7b
99
89
78
9a
7e
77
87
8a
8a
70
87
6c
cc
79
88
b4
66
88
87
6d
87
ad
89
97
a2
7a
9e
58
75
72
8a
9f
8a
99
80
8e
89
a7
a3
82
8b
91
8b
a1
a2
9e
90
af
9c
94
7f
96
65
75
9c
b0
99
6a
aa
7b
76
6e
67
71
85
b3
73
93
93
78
87
7e
80
84
9e
91
a1
7f
7b
96
8d
98
8b
4f
a9
7e
7e
8b
9c
8d
91
a7
76
95
92
a0
68
60
9b
7b
71
82
7d
95
74
a0
7e
93
94
8c
8f
74
90
6c
86
7b
94
8c
95
76
7f
bb
a5
7d
73
5d
a8
94
9d
76
89
96
71
8c
96
94
7e
8e
9f
9d
7a
93
79
8f
a2
93
8d
ae
95
85
91
91
88
93
98
92
96
73
9b
6b
6f
8d
94
85
85
a5
87
94
96
a1
81
7a
92
94
a2
96
b3
93
8b
8c
84
90
95
62
ad
80
97
94
86
9a
7b
a7
71
74
a9
9a
82
79
98
8a
92
8d
9f
8d
90
bf
a0
86
96
87
82
8f
87
7d
a1
7d
84
94
7e
95
94
a5
9f
7f
7d
91
8a
96
97
7a
9e
a9
78
98
8b
8c
a3
80
a4
84
73
93
86
91
97
88
90
ba
91
b2
a4
80
84
7f
99
84
92
98
8b
76
86
76
88
8b
89
8c
61
ac
8f
b4
9b
8e
7a
8a
8e
83
a1
9b
90
9f
95
96
89
7f
af
8d
a6
95
7a
84
9b
94
7c
97
8e
87
6c
7f
73
8c
7b
a2
92
ac
7e
82
90
a8
91
91
8f
7d
a3
89
93
9c
7f
6f
84
89
68
a5
87
98
6e
87
70
9c
72
60
73
a2
75
83
8f
9b
6f
a3
93
b2
7e
97
95
64
99
9c
87
8f
5e
9e
81
84
78
8b
81
9b
a1
7f
8b
7b
a5
9b
85
7b
77
a5
71
9c
99
92
a9
6e
ba
6c
9e
75
8a
83
8f
a2
8c
99
ae
80
7a
6f
a5
95
8a
94
98
8b
9a
95
97
bd
2d
7e
80
93
96
6e
9d
ab
80
9d
9e
a9
7a
82
7b
76
93
a1
7b
85
94
97
66
8d
b3
59
72
70
a7
82
8e
89
57
71
83
a3
80
81
99
63
a6
a3
8d
ac
72
78
8d
7e
88
9d
92
7f
79
a4
75
7e
72
93
a9
98
7f
8f
73
87
a1
8c
7b
9f
73
81
a4
85
83
62
ad
9a
9e
6d
a1
4c
99
74
84
94
9d
a1
6f
6e
88
97
a2
89
9d
7a
7d
5e
a2
92
85
bb
5c
83
89
95
83
98
8e
b0
9d
8d
72
8e
7f
7e
8c
8a
b8
7d
84
90
60
ba
74
76
a6
95
8f
a4
bc
6e
95
87
66
60
67
6f
60
7e
8f
90
7e
a0
95
73
68
7d
94
8c
79
7b
70
95
ae
7a
7d
8d
8a
56
74
a5
88
6f
80
7b
9e
7c
83
9b
88
82
77
81
a8
79
81
79
85
74
a9
4d
93
8c
b1
7c
75
a2
7e
9a
77
7b
a1
a6
8e
95
93
96
73
a5
a6
8e
8d
7d
8b
84
a4
a8
74
a0
80
9c
ab
a3
63
95
a7
85
8c
8a
85
88
77
6e
71
84
83
8c
94
78
a2
82
88
9e
78
81
6f
8d
7a
9b
8f
7f
97
ab
8e
8e
6d
9a
97
8e
76
77
97
91
aa
94
a3
a4
79
76
8b
99
a2
83
7e
86
84
71
8b
9e
82
8d
6a
93
9c
86
8d
8b
79
78
9b
74
91
a4
a2
7d
99
bd
6a
6e
78
81
aa
a4
86
88
a8
a5
77
b2
92
90
96
85
a7
78
ad
8e
9f
7d
7a
81
7e
a5
7e
b4
86
94
8f
87
92
8c
99
8e
94
ac
72
66
ae
60
b2
8f
8f
96
7d
a6
89
8d
8b
79
5f
90
9e
a6
a5
87
82
8d
a1
78
72
89
85
76
89
85
94
7c
99
7f
89
a3
6b
83
85
8a
91
72
8c
76
bc
80
78
7e
7c
57
a2
88
99
79
65
89
8c
a8
8a
96
93
95
7a
84
60
93
ad
a8
93
96
71
71
9b
8a
b3
8a
85
a3
9d
92
85
a1
71
80
95
7b
94
74
6a
b0
93
97
98
87
ad
9c
7f
a3
8c
a2
71
68
98
6e
8f
83
91
8d
6f
98
aa
72
8e
a4
8d
86
a4
9b
a9
7b
8c
a7
9b
78
a5
78
91
7b
a2
56
69
7a
89
89
75
83
78
8e
7e
b2
bb
68
79
9b
8f
75
a6
94
84
6a
a1
91
bd
59
83
98
71
9a
69
af
93
9d
8b
99
6f
68
8f
9a
9b
97
93
80
83
9e
6f
a7
a5
84
b1
a0
8d
8f
7e
8f
53
56
95
84
77
9a
8d
a4
94
69
a8
9f
74
8f
63
97
97
62
ba
8e
a5
98
7e
ab
7e
8e
af
7e
7c
81
9f
95
92
89
8e
82
93
af
83
69
87
a9
9b
69
99
7f
7f
76
9c
9f
80
74
6f
7d
8a
9c
a0
7e
78
93
a1
77
8c
a5
79
68
a8
62
6d
98
a5
9f
84
7d
9a
91
96
9b
77
98
54
88
83
91
91
90
ac
67
89
7a
55
79
88
8a
b5
be
86
a9
9f
9e
82
60
89
92
70
95
96
80
84
7c
93
8c
72
82
6d
88
94
6b
b0
a1
8e
96
ac
b6
78
84
91
80
6d
77
88
85
90
a4
8b
97
87
98
a5
7a
9e
7c
83
9e
8b
7f
82
88
a5
8b
86
8f
93
97
8e
82
90
77
7f
83
91
7f
7f
a0
7f
72
81
82
82
89
99
a8
8a
7e
8d
92
a0
9e
98
a3
71
7a
98
95
8e
8e
b1
7c
7b
72
6d
9c
9b
9f
8b
aa
a5
90
9f
a0
7b
9c
9d
a8
83
88
8d
87
a1
7d
a6
93
85
7a
7e
93
8e
6a
9e
97
84
90
a6
9c
80
9b
a7
91
75
a3
87
81
7f
a0
78
9f
5c
ae
ac
7f
bc
80
a7
7e
7f
70
94
7c
7c
c5
79
84
93
ab
84
d3
8f
a2
9d
93
6f
8d
79
98
77
60
86
7d
91
63
8e
7e
66
b2
7c
7c
8e
7c
b7
d7
8e
98
9e
a6
7e
7a
7b
6e
4f
7b
7b
8f
a0
a9
5f
bd
95
6b
66
98
72
a8
65
93
65
ad
b5
98
d2
83
83
85
8e
a2
4d
8c
b0
7c
95
4d
97
93
95
6a
61
75
8d
59
93
5d
87
6e
88
cb
71
91
7f
9e
9f
82
a4
86
85
82
7e
7e
94
6c
85
ae
6f
98
9c
a0
94
bc
aa
88
8b
90
8c
8e
71
9c
6e
88
a1
80
a0
88
92
77
74
b5
78
87
a8
65
a4
a9
a9
95
a7
a4
75
61
7d
72
55
82
8a
90
97
ae
82
b3
8c
87
59
b9
5e
b4
58
87
86
bd
71
85
af
8c
98
6e
8f
93
6b
84
bb
82
8a
68
7f
83
90
71
5b
87
9a
78
b2
98
8f
60
8a
ae
6b
8f
5a
7e
a8
86
8c
86
8c
84
7e
8f
8b
89
81
b1
78
76
94
9a
8b
a4
a2
7c
a6
90
a5
86
7c
9d
74
5c
7a
8e
90
8e
99
71
84
b3
8b
6a
8b
6e
ab
a8
99
8e
a3
a6
79
7f
6d
78
74
76
8b
a2
98
c6
8c
a8
92
79
93
a1
48
a9
76
81
a3
a5
92
78
cc
77
94
7b
7e
86
8c
91
b7
7e
9c
69
6d
8f
9e
7d
75
9a
76
6b
a4
60
78
6a
91
bc
68
94
7d
85
96
6e
9b
a3
af
90
84
9d
8f
6c
76
8f
8b
6d
8e
9b
85
97
a2
7e
8e
aa
78
8c
79
9b
7d
69
89
82
8e
8a
b2
62
ab
8c
84
79
8a
76
8d
89
9f
97
89
99
5d
88
82
7a
78
7d
76
99
9c
9f
8a
a4
85
8c
82
a2
75
a5
86
84
a1
a0
7e
82
9f
94
95
7e
88
7a
79
9a
79
a8
94
58
82
6d
94
75
8a
7c
7e
71
a1
84
96
87
85
a0
85
9c
5a
8c
97
85
a2
87
aa
7f
7f
68
8f
62
b8
a8
68
ae
76
9f
7a
a2
a7
7c
a8
9f
92
aa
72
a3
5b
4b
6e
91
90
92
87
a1
78
ba
a2
86
85
ab
b1
a2
97
a7
9a
89
78
86
64
81
74
84
8f
71
8d
8c
74
ac
9a
84
73
ab
84
a2
7e
99
70
8a
a3
9f
8e
7c
89
97
84
85
60
ab
a1
77
99
6c
87
9a
a8
6d
70
8a
a7
77
66
81
6f
75
83
a8
6a
6d
7e
7a
97
91
97
8b
8e
93
9f
84
75
79
90
9d
89
6d
87
9a
90
ac
a0
91
8d
92
8f
92
70
91
7b
83
7f
9e
70
97
9a
a7
8d
8b
7e
97
79
6e
9a
b7
99
8a
9d
a2
6f
8c
a6
72
6b
8a
80
8f
87
9e
7d
80
80
9a
70
81
6d
8a
8d
7e
7b
a7
86
6e
ab
8b
7a
88
8e
87
8a
97
99
91
8d
95
86
83
7e
93
82
88
9e
80
7f
71
89
69
92
95
70
90
a2
ab
a6
84
7a
88
96
93
9f
99
9c
8e
a3
9c
7e
7f
88
8f
79
9a
83
9b
73
a6
a7
83
8b
9b
9c
9c
7f
8b
86
84
8f
7a
89
86
ad
7d
7f
80
a3
9a
90
83
8a
ac
89
9c
78
8f
85
89
7d
a7
86
7e
97
8f
83
8a
73
aa
87
92
ac
87
95
82
77
85
99
84
8e
7d
89
78
81
6f
9f
9e
8b
93
89
76
a1
76
a4
8c
84
9b
8e
7f
80
7c
84
96
9e
7b
79
95
98
7e
a8
85
86
96
83
a4
a6
85
8f
b5
85
86
88
9d
90
ac
8e
88
74
95
87
a0
96
ab
83
6d
8f
9c
97
80
9b
7e
86
a1
a1
92
95
7b
98
b6
97
a9
8f
9c
5c
78
91
69
7a
78
8c
9b
9a
a8
85
9b
9b
98
88
af
87
94
8e
74
98
ac
87
7b
9a
6b
83
87
92
7d
7e
94
a4
97
ae
6b
87
a7
8b
84
69
71
83
75
9e
85
81
8b
90
9a
88
a5
93
79
9a
81
87
8f
85
79
8c
85
a4
7d
85
7a
72
89
8a
8b
84
8f
96
84
8a
b5
8e
73
95
85
91
62
a3
9b
79
79
78
77
6c
b4
9c
74
71
81
8a
a3
8b
80
ae
73
82
98
8d
7b
85
6d
99
93
6d
79
5f
a0
81
69
76
9a
82
a7
8f
97
82
89
8f
9e
a1
77
8e
86
a9
ae
5f
6d
7e
87
84
5b
8b
7d
8e
7b
90
8e
9f
88
96
8e
70
88
8b
9d
6b
90
7d
75
9a
81
91
8c
8a
81
89
97
9f
81
83
84
75
87
90
7f
92
9c
90
90
86
92
8d
7a
85
9e
99
80
8b
8d
8a
8b
74
6d
95
7c
9d
99
81
89
9c
a0
8f
89
97
8c
91
90
a3
84
63
7e
74
a3
7f
8c
8d
8f
a3
87
66
91
75
8b
9a
72
76
8a
7a
9d
81
76
88
81
b0
98
79
96
92
9a
9a
8e
71
8c
99
a1
97
83
85
9f
a0
99
76
6a
91
92
87
66
9e
80
a9
7f
80
8e
a8
91
86
88
a1
79
ab
9f
67
8c
7e
83
7b
8d
92
87
7d
8f
87
8a
9a
7a
9a
85
95
69
9c
80
87
80
9a
a1
99
74
8d
93
8c
88
8e
61
b5
97
82
85
96
7d
7b
74
93
88
93
8b
87
a3
9b
9b
83
92
6b
7d
85
89
86
6e
67
84
ae
7e
9a
85
96
87
7b
88
b2
7e
9c
99
65
8d
87
9f
90
7d
8f
a2
90
8b
76
8d
88
a4
6c
6b
8f
83
8d
7f
ae
a7
9c
ab
92
a6
9e
4c
74
82
98
5b
6c
67
95
8d
87
92
63
94
61
a6
8c
8e
7a
66
a1
7d
53
7b
a8
6d
7e
80
91
46
8d
6e
69
bb
95
a7
a5
a3
57
89
9e
80
5d
7e
5d
b0
95
8b
9d
a6
70
97
74
a7
98
a5
71
85
69
93
8f
67
6f
88
84
95
7b
90
84
80
84
af
7b
80
4c
7d
b1
af
8c
88
81
88
88
8a
76
56
94
bc
7c
70
58
93
86
8e
b9
63
8c
6e
7a
92
96
6b
51
8f
95
9c
9a
64
6a
8e
99
65
7b
81
78
91
7c
88
bb
95
a8
a1
b0
8a
95
94
5b
90
8d
57
7f
82
aa
ca
94
a2
7c
a0
92
7f
80
96
71
9a
a9
83
95
8f
8d
b8
78
7c
4c
b2
95
60
aa
6f
7f
82
a5
77
8d
84
80
99
a3
70
91
8a
99
8e
aa
87
96
96
9c
a2
a4
9c
90
8e
87
a4
7a
8c
83
8f
74
88
8e
77
89
8b
90
a7
93
65
8a
80
94
7f
8a
98
8c
92
96
95
8f
90
b5
7b
93
76
75
8f
a9
81
66
82
9e
9f
9c
79
a0
80
83
8a
73
86
97
8a
92
96
9d
9e
89
a3
74
8d
7b
92
73
76
81
8c
8c
8e
71
83
7c
79
74
a5
93
7b
91
8c
9f
80
9c
8f
a1
85
a6
9e
9e
9e
66
7a
ad
69
8a
96
9d
a3
93
64
70
87
68
86
8a
86
81
88
70
92
85
8e
7f
8d
84
7a
b3
80
92
a9
7e
7e
a8
91
9c
78
83
8a
a2
94
97
77
ae
72
89
88
92
79
86
93
96
7a
83
73
a2
a2
85
72
7c
97
a4
85
9b
7f
7e
6f
80
68
aa
97
77
7c
8b
9b
8d
5f
9d
84
78
9a
85
8f
8d
95
a1
88
73
98
99
87
7d
70
8f
96
9c
76
a4
7e
74
84
93
8c
86
88
b5
70
a6
91
ad
97
9d
81
8e
8e
b0
85
a5
7f
9b
97
79
9a
88
7a
a2
9d
9b
99
85
88
95
a1
8c
4e
60
98
82
7f
8c
5f
ad
70
9f
84
7f
7e
5d
a8
7e
97
ab
85
a6
a0
ae
9b
8a
96
68
6c
9f
6a
75
69
8b
93
b7
a1
51
89
6a
84
9b
72
80
75
63
7f
8e
87
87
91
6b
a5
58
a7
c7
72
83
83
a3
8f
99
6c
95
90
a5
a4
73
97
8a
80
7c
b4
5c
6e
69
9b
a7
af
8b
92
69
89
7e
73
a2
7a
86
96
66
8e
80
71
8d
a4
b7
8e
a7
84
76
95
c0
7e
78
8c
6b
91
97
86
a5
b2
6c
8a
9c
8a
74
95
87
69
a5
76
8c
7b
8c
94
87
6a
7e
a4
a5
8e
8e
75
b8
a8
a5
b1
9e
b9
72
70
7c
72
7a
74
8b
99
84
a5
75
a2
94
82
63
99
58
8c
66
97
97
8e
84
87
af
86
a4
84
a2
91
60
8b
a0
b8
83
63
77
85
92
8b
6f
7d
98
76
a5
6b
8e
8e
72
a7
7f
98
83
79
8f
a4
bb
85
b0
83
77
99
b9
75
73
8f
6e
92
93
87
a3
b4
6e
8b
98
81
73
95
84
65
a5
80
92
80
8e
8f
89
6e
78
a4
a3
87
98
74
bc
ab
ac
aa
97
b4
76
70
7c
6f
80
73
92
98
7f
a0
74
a3
97
82
6b
96
60
8c
5f
99
8f
93
88
88
a7
86
9d
7e
a5
8e
5f
8a
a3
ba
87
66
78
81
92
8d
73
7e
99
7f
a5
71
8d
8d
73
a2
76
95
86
76
8e
a2
b9
8e
a4
80
76
96
b2
79
7e
8f
71
95
94
89
a1
b6
71
8b
9f
8a
7e
97
8b
60
a6
78
8c
78
91
8f
8d
6b
7e
a3
aa
8f
94
7b
ba
ae
a6
aa
9b
b7
72
75
7c
70
7f
78
8c
98
80
a1
76
a1
98
85
60
8a
60
95
65
90
9c
90
87
85
ac
85
a7
80
a2
8e
63
88
a1
ae
88
6d
7b
82
8f
93
73
82
9a
7c
a3
6f
90
90
76
9f
76
93
8c
83
94
a1
b8
84
aa
83
7c
93
b8
76
6f
8e
71
94
95
83
a0
b2
68
8e
98
93
78
9b
85
68
a4
79
8a
78
91
91
85
6e
7e
a1
a9
86
90
78
ba
ab
ac
a8
95
b9
74
74
75
70
7b
6f
89
98
81
99
71
a8
99
7f
66
94
5b
92
62
95
8d
94
89
86
a7
83
9d
7b
ac
94
69
89
a5
b8
7e
63
7a
7e
8d
8d
6c
82
96
81
9f
70
88
8c
6f
a6
75
90
7c
75
8b
98
bb
85
a7
85
77
97
b7
7c
79
85
69
91
95
8a
a5
b3
6a
8f
a4
8b
77
9b
8d
64
a3
74
95
7d
88
92
90
75
7f
a3
9f
92
91
72
b7
ab
a1
aa
9a
b6
6a
76
81
72
7a
79
95
94
8a
a5
73
a4
95
81
60
9b
5e
89
67
9a
98
90
85
90
a4
87
9e
83
a1
90
63
90
9e
b3
81
64
74
82
88
88
66
7c
90
71
9d
77
8c
87
75
a5
7a
99
80
76
8b
a3
b5
8a
a8
82
77
96
b7
73
7f
91
6a
91
8e
8b
a3
b1
6d
8c
9b
84
79
96
84
6a
a5
74
8c
7f
8f
90
87
6a
7f
a3
a3
91
8c
7a
bb
af
aa
a6
9c
b9
71
77
7e
6e
7e
77
92
98
85
9d
74
9f
91
84
65
96
68
91
68
90
90
8f
8b
8b
a5
8a
a4
7f
a2
93
5f
87
a2
ad
85
68
7a
88
8c
88
6f
84
99
7a
a3
71
8f
93
7b
a8
80
8d
87
78
8b
a1
bc
84
aa
7f
7f
97
af
7a
7c
87
73
94
95
88
9d
b4
6a
8a
a4
8a
7c
96
8c
60
9f
79
8c
7a
8e
90
85
70
81
9f
a8
94
92
7f
b6
b0
a1
a1
99
b4
76
74
7b
71
7a
74
92
95
86
9c
78
a0
9c
85
62
90
5e
90
69
93
93
8d
7f
8c
a2
7f
9f
7e
a6
91
69
90
a6
ad
83
6e
7e
85
91
8b
71
81
9e
7b
a2
7b
8b
91
72
a0
7d
92
85
81
90
9f
b7
8a
a6
80
78
8e
af
7d
78
94
71
97
95
85
9f
b5
67
8e
a4
88
7c
92
8a
6a
a4
79
86
7b
8d
92
88
6f
7f
a4
aa
94
91
7c
ba
aa
ad
a7
8b
b3
75
73
7f
6f
7f
70
8f
97
87
a1
79
9e
98
8a
64
98
5f
8d
67
93
93
8f
8b
89
a6
83
a2
7e
aa
94
64
88
9f
af
7e
70
77
83
91
8b
69
81
97
7f
9b
75
8d
8e
76
a2
78
8c
84
6b
90
a5
b9
8a
ae
8e
72
9e
bb
77
75
90
6a
96
95
7c
ac
af
6c
92
9d
89
6e
a3
83
71
9f
7e
90
7e
8a
92
8a
79
7c
9f
a4
91
88
75
b7
a7
af
a9
95
b5
6e
71
7b
75
76
75
8e
95
80
a2
76
9c
9a
80
61
98
5d
8a
66
97
91
8a
89
8b
9c
86
9d
87
a2
93
65
8d
a0
c2
82
6b
6f
87
8c
86
67
7f
99
7f
99
74
8b
94
70
a0
77
96
88
70
8e
a0
b9
84
b1
8f
78
9d
b2
75
76
8e
73
90
91
86
9f
b3
64
8e
a4
89
73
9d
81
6e
a1
79
8c
78
89
99
8a
73
7e
a4
9f
93
8d
71
b6
a8
b1
a6
8f
b5
6b
75
80
71
78
74
95
98
87
a0
71
a1
98
86
64
94
5b
87
67
99
92
8a
87
8a
a1
85
98
86
a1
96
67
8a
a1
bb
73
69
76
88
90
89
71
7c
a1
7a
a0
6f
89
8f
6e
a2
77
94
8a
6b
8f
a6
b6
8c
b0
88
77
9a
b4
7a
76
8b
6e
9b
92
81
9e
ad
67
8a
a2
87
76
99
86
6e
a2
7b
89
7c
89
96
8c
70
7d
a4
aa
95
8a
76
b9
aa
a9
a8
99
ac
6f
76
7f
6f
78
78
8c
99
7f
9c
78
96
9d
89
62
95
5c
89
68
92
98
8d
89
8b
a7
8a
9b
7c
a7
96
66
82
9a
bb
7b
74
71
86
8e
90
71
7e
9f
85
9b
70
86
91
6c
9e
75
93
8a
77
90
9c
ba
85
ac
88
7b
98
b3
79
6d
93
6e
94
94
86
9f
b2
69
90
a3
8e
74
99
83
68
9e
7d
83
77
92
9a
8a
71
81
a4
ae
98
90
74
ba
ab
a9
a9
91
b5
6c
6f
7b
71
75
72
90
96
89
a2
74
9f
9d
87
64
9a
5e
8c
6b
98
96
8e
87
8b
a1
86
98
7b
a7
94
65
87
9a
b4
7b
69
74
80
90
8c
6c
7b
a0
7d
a1
79
8e
8e
73
a3
7d
8f
84
6a
90
ac
b6
93
a9
89
74
9b
bb
80
71
92
6e
94
91
77
a5
b0
61
91
a0
8b
68
a2
80
6a
a7
7c
8d
7e
8a
93
84
67
7b
a1
9d
8d
8d
79
ba
a3
b2
ab
86
b4
72
6c
84
6b
7c
73
99
9a
7c
9e
74
a6
99
82
63
91
60
83
60
99
93
8a
83
91
9e
85
98
82
a3
98
65
83
9c
bf
73
6d
6f
80
87
87
72
7a
93
7e
95
6a
85
91
70
9c
7a
93
8d
72
91
ad
b2
8d
b3
89
79
9f
b8
7f
75
8a
6d
95
97
87
9e
ad
63
92
a5
8c
70
9b
81
6e
9c
78
85
81
89
97
86
70
7b
a1
a2
8b
83
73
b4
a7
ac
a7
8f
b0
69
72
7e
70
7a
74
91
9b
81
a0
75
9f
a1
80
5f
93
5d
8b
67
99
94
8a
86
88
a1
8a
98
82
a2
93
63
8a
a8
be
71
72
71
84
89
89
76
7c
9d
7f
9a
6b
87
8d
66
a1
78
94
88
6c
91
aa
af
8a
aa
86
7b
a0
b9
7e
74
8d
7a
99
8e
84
a1
ad
65
8e
9f
8e
72
9d
83
6e
a0
81
87
82
8e
94
88
6a
7f
a0
a9
90
83
71
bd
a4
aa
a6
8a
b3
68
70
80
73
76
76
8b
95
82
99
79
9b
9e
82
5d
94
5c
8a
69
97
94
88
88
85
a4
88
92
7a
a6
96
65
86
9b
b7
75
67
77
7c
87
8a
76
7d
97
80
98
74
84
8f
6c
a0
77
96
8b
71
91
a7
b9
8a
a7
82
7b
9c
b4
75
6c
92
66
97
91
7c
9f
b1
66
91
a5
8a
72
9c
83
6f
a3
7d
85
84
8e
9a
89
6f
82
ab
a8
97
82
70
b9
ae
aa
aa
91
bb
6e
6d
77
6e
77
71
87
97
82
a0
79
9b
a2
85
58
95
5d
86
65
97
97
91
8a
86
ac
88
95
80
b3
91
60
85
9e
b8
77
63
70
82
8e
90
6e
81
96
7c
9d
75
85
88
67
a7
80
90
88
81
a3
9b
a1
79
95
cb
88
82
70
71
68
84
b2
53
8f
3f
71
7c
79
8f
7f
91
b3
7d
7f
91
c6
9d
98
bf
6c
af
95
b4
8a
7d
96
8b
6e
73
81
4a
a0
67
71
a5
74
9d
88
8e
68
81
88
94
77
ce
8b
65
6a
8c
82
85
75
a5
b8
8e
8b
80
71
77
8e
73
6f
60
b0
55
82
68
97
c0
70
c6
5e
7b
a7
c1
76
68
73
a0
78
91
7a
a0
88
6a
8f
7e
a3
6f
8a
81
a4
8e
83
ae
80
8c
7a
73
5c
88
96
60
80
73
75
86
81
72
70
84
9d
87
8b
a1
a0
b2
82
a0
98
96
9a
9e
7e
86
a1
6d
79
85
7b
71
a3
57
80
a7
78
af
87
92
90
7b
a7
87
78
a0
8c
9b
7f
ad
91
7c
89
95
a6
89
a6
74
6a
6b
96
85
74
72
9b
77
99
80
92
9d
7c
ae
72
8b
84
ad
58
66
93
8f
9a
8d
76
98
93
88
80
8e
a4
6f
9e
71
a9
9b
94
92
61
82
8a
89
5f
8f
8a
77
99
84
66
7e
9d
8e
8c
8b
9b
95
7f
99
96
aa
8f
90
96
b3
9b
95
7d
85
98
83
88
75
7c
69
91
6c
79
8a
9a
95
85
92
93
94
a8
89
5f
9b
86
87
96
9b
91
89
8c
9b
af
89
a7
83
75
76
9d
74
92
85
9f
86
86
8b
7d
92
96
97
82
9f
84
a1
73
6c
ab
b0
80
ab
75
9e
7e
6f
88
97
6c
8b
9d
8f
65
8b
a3
b3
64
9f
90
9d
72
8e
84
69
95
87
87
91
7b
ac
77
81
9d
7c
92
88
8f
b0
7a
8d
a3
9d
7c
9c
9b
8f
7a
97
94
8c
79
67
8c
86
79
79
85
77
80
8d
8a
95
b1
84
55
95
b4
a4
98
81
95
89
83
9b
7d
8c
c4
91
75
81
93
89
67
9e
b3
98
85
61
7d
8b
a6
9d
95
5b
79
8f
67
53
88
bf
7c
9b
77
98
99
8a
72
9d
82
80
c7
a0
ba
95
71
aa
7a
98
8d
a2
a7
8d
ce
67
91
7b
7d
8c
9c
9f
6f
9e
97
8e
91
aa
9b
72
8e
ad
b5
6f
c2
81
8b
7f
9e
78
89
88
a9
b7
86
88
7f
83
96
8d
7f
85
79
8d
7b
8a
9b
ab
8e
96
94
85
7f
86
8a
9c
ad
8d
82
7f
79
81
97
5d
73
9d
9e
95
6e
88
a4
94
a2
9e
75
7b
a1
86
8a
71
62
a2
6b
94
75
5f
8e
93
6a
72
70
89
92
9a
98
98
8c
8d
91
a8
a3
83
b0
b8
ad
7c
98
83
86
7c
84
68
69
98
a8
98
74
b2
9f
9c
7a
aa
a2
89
9c
8f
78
9a
b5
48
78
77
a5
ab
8e
8a
9d
94
9e
90
a2
89
7c
71
81
a6
90
95
8e
a1
96
87
7f
76
95
ad
97
7f
82
a2
92
93
9d
83
82
8c
97
90
92
76
8e
80
a1
7e
4e
80
a6
7c
96
82
82
81
6b
6d
61
73
7a
9c
6e
80
8f
75
8b
8e
a2
9c
87
86
8a
91
a1
7a
9f
ad
97
8d
8f
7c
6f
9a
8d
70
70
9e
b0
80
85
9b
92
ae
89
c0
9d
93
a7
8a
78
9a
95
69
90
6a
86
b6
77
8f
a5
8e
92
a0
85
7f
6b
8d
99
b6
9b
7b
7c
b6
9b
8b
74
7d
80
ad
9f
78
9d
85
90
64
8e
89
68
96
af
8b
77
9e
9a
6f
bd
79
79
73
80
75
a9
77
9d
83
7e
8d
60
7f
98
a1
5b
a9
8e
93
ad
92
9d
94
97
78
88
83
8f
82
ab
af
94
80
88
7f
97
9a
ac
73
89
99
b9
82
9d
74
9b
91
74
c5
97
8b
97
9a
9c
91
8d
71
91
7b
84
ac
93
92
88
91
89
7b
7c
8b
4f
98
87
a5
ae
89
8c
a3
8f
94
76
97
9f
8e
b1
6d
8a
72
a2
77
6c
8a
74
94
ab
91
6c
7b
9d
65
ad
8f
88
69
8b
74
83
7a
94
a7
74
8c
7f
80
a1
87
76
a4
ae
69
b8
96
b3
9c
93
8d
9d
af
97
78
a0
6f
a2
6b
5d
70
76
89
bc
82
6f
74
83
a6
9c
78
84
66
b7
8c
67
65
85
90
82
79
95
73
9e
92
86
a2
7f
56
8e
87
8c
7e
9b
68
5e
97
6a
9c
9f
a0
8f
9d
7e
6c
70
81
86
8e
a2
73
6f
8e
85
b5
7b
85
85
74
96
a4
64
a9
9a
ae
68
73
62
a5
60
ad
73
90
53
86
94
80
86
88
89
96
8a
89
9d
75
9b
8e
95
a8
7f
89
9e
9b
9d
73
b0
71
a3
52
71
7c
76
73
b4
81
6b
7a
9c
94
9b
8c
93
6a
af
98
7a
80
aa
8f
74
87
9b
5d
90
89
92
b1
72
6f
94
7f
8f
8b
b0
72
66
82
7b
b0
90
82
9c
9c
8c
7b
7b
8b
9f
8e
9a
80
6b
73
8e
9f
82
91
95
76
84
b8
78
94
9d
a4
74
66
51
ba
91
b4
83
93
65
78
9c
7e
7e
84
88
9f
8b
86
8f
86
7f
76
93
90
86
82
92
85
a2
83
83
75
a5
75
7d
75
79
92
9c
82
83
7b
ab
81
7d
8f
7b
81
91
9d
85
88
8e
81
86
a6
97
80
84
81
9b
91
6c
76
9d
76
6d
7b
92
86
68
87
8a
9e
8e
7e
9b
b8
89
79
78
7c
91
99
98
7d
88
6d
9e
82
85
94
91
96
9a
8f
7c
84
8c
a1
bb
6c
8f
92
7a
96
99
99
8b
6b
8b
88
73
71
b0
98
61
7f
91
8c
75
79
9b
85
7f
6e
8e
73
8a
84
9c
61
86
71
71
73
79
72
ad
5d
9b
84
92
82
90
82
73
8b
83
b1
7d
7c
69
97
84
92
89
8f
9b
94
81
84
88
98
89
8a
63
77
8c
91
89
80
96
85
ac
a5
8e
9f
73
8b
86
73
9b
9b
ad
79
7d
70
aa
85
7b
9e
83
8b
9b
97
85
97
69
83
98
90
90
97
9f
8f
71
9d
95
84
92
9a
92
91
a5
94
97
91
89
6c
94
90
bd
77
5e
6f
78
b4
a6
9c
6f
8d
8f
a0
8b
72
76
70
9d
75
81
75
7b
9e
83
6c
90
80
9c
a8
a0
88
80
b2
8a
88
7c
68
77
6e
83
a9
9c
96
59
87
7b
8c
ab
85
7d
89
63
7a
7c
a0
95
aa
6f
7e
7b
98
87
6c
a8
78
a5
7b
94
93
7e
86
a9
89
91
8d
a1
95
9a
b2
76
a0
78
a1
9b
94
90
8a
86
a4
8e
8f
7e
81
78
6a
76
85
84
75
7d
7d
b3
73
63
76
8b
a2
b3
85
76
7c
97
89
98
65
76
80
90
63
7a
80
76
96
83
85
a7
97
a1
ac
8c
7b
92
ab
6f
8a
8c
6a
5d
50
87
ba
a1
94
67
77
7a
8b
ac
77
6f
8c
6f
7b
78
7f
9c
99
64
68
61
ab
90
7c
a3
7b
ac
76
ab
81
a0
83
a5
8a
94
87
b4
8b
8e
af
96
93
59
97
9a
9e
aa
96
7f
87
9a
89
8c
92
84
77
79
7d
85
6f
84
71
b4
8f
6a
7b
7c
97
ae
7b
79
81
7a
97
a9
65
69
74
89
72
6a
85
7d
a3
95
8d
95
96
9d
a2
93
82
8e
ae
93
85
8b
6c
6c
64
7f
b8
82
97
77
85
7a
7d
a7
87
6b
8b
70
6b
85
7f
9f
80
78
56
69
9e
9f
81
a8
84
ac
71
9d
7a
90
97
90
82
98
8c
aa
8b
90
96
8c
8c
6b
a1
8f
a3
a0
a0
99
93
9d
92
89
9e
8f
80
86
79
8b
7c
8b
78
ad
85
70
78
81
9e
ae
83
7d
77
80
a0
a5
60
69
74
9c
6d
7a
91
74
90
87
8f
9a
9b
95
ae
99
7f
91
ae
7f
91
96
6c
66
69
90
a9
82
88
72
89
7c
84
9d
84
73
9e
68
66
96
98
a2
98
81
63
80
a7
9e
71
ad
80
a6
66
98
85
85
93
9e
80
a4
80
a0
8f
94
9f
90
99
79
a4
8f
ad
9d
99
a0
96
94
88
8f
a1
8a
79
8a
87
8a
8e
a5
a7
6a
5c
95
9a
8f
8d
61
a5
79
7d
7b
8f
7c
90
56
76
80
b5
8f
8b
71
68
81
95
99
73
82
a1
95
6f
79
82
95
88
95
96
87
81
7d
75
6c
78
75
75
87
95
98
75
90
9b
9a
8c
a6
8b
9f
73
78
87
7d
85
73
8e
9f
83
9c
7c
77
8f
73
a8
7c
84
96
7b
6d
71
97
7f
7f
b4
aa
88
60
85
94
96
6d
ae
98
83
80
8c
92
6d
6f
68
98
73
91
a3
8f
6e
88
b8
8b
73
79
6f
6c
8e
99
70
84
66
6c
8c
78
91
7d
94
9d
84
93
99
9a
a5
91
ae
66
90
9d
b7
81
79
91
73
70
79
9b
71
a5
7d
68
9b
8d
ae
6d
7d
7d
7f
80
8f
6c
ae
86
79
85
94
85
91
92
98
b5
97
98
75
8f
78
a1
73
70
5c
97
6d
84
77
7f
9c
72
b0
6e
8c
82
b1
78
83
84
94
8b
97
77
8e
a2
6a
9a
93
ad
7e
a1
7e
78
7f
89
a7
51
7b
79
6d
65
a5
9c
6b
a1
7c
65
72
87
95
89
66
a5
81
92
97
a9
b4
78
aa
76
99
7d
a2
8f
65
86
6c
61
80
6f
79
a4
6d
77
a5
96
a6
7e
a0
7e
81
b8
76
64
a3
93
7b
98
9b
6d
8a
6d
8f
a9
91
b6
5c
7b
70
c1
88
93
68
b2
7e
79
8e
78
9f
6f
b3
89
92
65
ad
7a
74
90
96
a1
95
6d
9c
be
58
86
97
97
71
b0
85
81
7a
91
b8
5b
7d
7f
6c
67
91
9a
66
a1
73
64
7d
6d
92
80
72
af
75
b1
77
aa
b8
87
a5
5c
ab
8c
af
9e
66
80
8a
6d
7d
86
62
a8
8d
79
9b
8c
aa
62
8a
68
81
b1
7f
65
a1
9d
83
93
90
6f
8e
78
8d
a5
90
a8
66
72
77
ad
87
73
73
c2
88
7a
79
64
9b
6d
c0
89
7b
6d
9c
53
77
94
b0
76
98
79
a2
a7
58
94
8d
79
8e
a8
8d
c2
8c
87
7b
93
79
87
9a
b0
a2
68
96
8c
6c
75
97
a0
7f
98
a3
a9
97
88
a9
6b
5e
a2
a1
95
83
83
9a
7b
82
a5
b0
ab
a9
a0
bb
97
9c
9c
82
81
98
7e
6d
8c
a3
99
82
8b
82
92
95
9b
8d
a8
8a
79
74
b3
76
87
61
93
81
76
68
73
87
6d
6c
65
83
a7
81
9e
94
8f
63
80
4a
84
93
6f
77
6d
97
90
68
a1
91
8f
9b
94
8a
8a
b0
ae
90
6c
82
83
88
84
9c
bb
84
8e
73
8a
73
8e
77
98
8d
8d
a0
9a
96
98
9b
95
70
a1
98
9b
83
8d
8b
89
8b
a5
7f
89
7f
96
8a
95
70
84
81
91
83
99
87
94
8b
81
93
6e
99
77
86
8c
78
8d
9a
a4
85
a0
9b
6e
97
9e
97
7e
7d
79
9c
7d
87
77
87
b5
84
9b
75
77
7c
9c
5a
96
ac
7b
73
71
79
76
7a
82
9b
9b
7a
96
7c
a8
8a
8f
a7
91
a0
76
9d
94
7f
bd
b2
a2
8c
a5
97
77
8d
73
6d
5a
97
aa
9d
85
89
a7
8f
7c
b2
95
86
8b
92
7c
93
8e
51
a2
46
a4
a6
84
95
87
89
8f
9a
99
8c
a4
a3
af
8c
8b
85
83
af
8b
9d
78
8f
85
b4
a6
8a
ad
75
96
6f
85
9d
76
a3
a2
8c
6c
a2
97
72
bf
84
7e
74
78
74
a9
7b
89
a5
8a
9e
59
5d
7e
94
6b
a1
85
98
b1
99
a0
a3
8e
8a
84
8b
83
9f
a0
9d
a2
93
ae
75
91
8b
86
8e
68
a0
95
81
86
97
8d
ae
6c
cb
a9
81
94
84
98
8b
79
70
a4
57
7a
86
93
88
73
82
96
83
86
9c
8d
a3
a8
97
9a
9b
9b
aa
90
95
72
89
91
a2
a9
9c
b3
88
74
55
74
93
61
95
9d
7e
5c
90
70
62
a3
8b
97
46
7c
73
99
6a
7d
b2
7f
7a
5d
73
82
70
6e
88
75
88
7c
72
96
8a
97
a6
9a
8d
82
82
84
82
6a
80
a0
a9
77
7e
8f
93
76
91
91
83
77
aa
99
99
9c
a1
a4
5b
88
9c
8f
9e
86
7c
6e
7c
8f
a0
86
96
90
8a
85
89
71
60
87
89
8f
9d
8a
7b
6e
6c
81
a1
92
84
77
85
93
87
8b
8e
94
8e
a6
98
a2
a6
7a
77
96
92
96
75
9b
6c
a4
8d
80
91
82
81
7f
97
7a
a8
8a
69
9e
97
ae
74
8c
8b
86
6d
a5
9d
8f
87
94
87
8f
a8
9d
6f
84
7d
7e
65
89
89
a6
98
74
83
8c
8b
95
88
a0
92
ae
92
93
85
72
8b
78
7b
88
66
a3
9d
8f
89
81
9f
9e
87
a2
7a
9a
7e
9d
77
91
a7
84
73
88
9e
92
8a
88
90
86
9d
95
a8
7f
74
83
ad
89
82
a2
87
7c
87
95
7f
a0
88
a4
89
91
6e
94
aa
9b
a5
83
7f
a0
89
8a
6f
9e
b5
97
78
90
88
85
5f
a4
aa
82
8a
73
97
9c
83
7e
8a
a6
86
73
74
87
8f
9b
89
7b
63
c5
86
7d
78
ac
78
a0
9e
81
5c
83
93
74
9c
93
5a
83
7f
8b
9e
6d
88
a3
75
84
93
95
7f
63
88
9d
aa
a0
75
85
b0
90
7d
72
87
9b
a0
a2
81
6e
67
8c
b6
86
8d
aa
8c
95
99
73
8a
94
86
b1
55
81
94
8f
8d
a2
a2
84
80
9e
9f
6e
5a
a3
95
7a
65
97
93
89
6e
8d
a0
81
7c
79
6e
9d
7d
8c
88
99
89
67
83
86
8f
ab
73
80
83
a9
89
80
8e
7f
95
8a
b6
8f
67
79
b7
91
98
80
95
90
86
9e
88
81
8e
a1
8a
80
74
81
72
5f
9f
9b
99
ae
66
93
b6
89
68
60
86
a5
9e
ad
6c
76
50
7d
9f
7b
7f
84
ae
b5
94
6a
82
8f
70
a8
6c
7e
78
8c
87
7a
9e
9c
7d
7e
93
7f
78
97
a9
84
6e
8c
76
77
82
a6
8b
4e
7c
75
a2
b4
96
85
88
8e
9a
a0
76
74
85
9d
7c
7c
6b
80
a4
92
7a
87
92
a7
b7
7e
9d
74
ca
96
81
8a
70
72
68
74
b2
a1
9f
68
87
71
94
c1
76
87
89
69
75
75
70
93
8c
75
70
7d
93
9c
7a
a9
72
9d
83
92
91
82
8a
9f
92
8d
84
98
96
ba
b3
74
a3
7c
97
8e
8e
8b
97
9f
aa
92
82
7d
86
98
7d
75
8c
93
7f
84
88
a9
8c
60
72
69
9e
b2
a2
7d
83
8a
96
97
73
6a
86
9a
79
85
6c
84
9d
a8
83
89
91
a4
ae
82
93
81
b6
84
78
96
76
7a
63
7a
ab
ad
a3
6d
79
70
90
c1
7d
74
8b
76
82
87
7b
8c
8a
79
69
85
8d
9b
6e
9d
74
a3
74
94
96
7f
92
98
8f
92
8c
a6
90
ab
c7
73
99
69
9e
89
90
8f
98
95
99
99
84
7a
8f
85
78
68
88
94
90
75
7f
9b
95
62
76
8f
9f
b3
87
8e
90
92
99
9a
72
75
8b
9a
89
74
74
83
93
a4
92
97
8e
9f
b0
70
9a
8e
c5
9b
83
9e
74
76
67
8b
c4
97
97
77
80
69
94
d3
5f
7a
8d
66
6f
88
75
9c
82
77
74
83
9a
a0
7d
b5
7f
97
81
a9
a3
8d
80
bf
a4
8d
88
9a
99
b9
ac
7b
ae
6b
a2
93
89
8f
9c
9f
85
87
72
86
79
81
83
78
90
89
90
88
9e
a7
87
64
78
89
9f
ae
87
87
80
95
a2
9c
6e
79
7d
87
74
70
6d
90
8e
9e
97
8d
93
97
b8
74
95
86
ba
98
80
9d
8a
6f
5d
71
9e
9b
93
78
85
68
84
b5
69
73
95
77
6b
96
6b
8e
86
85
6a
8a
87
8e
89
a9
74
a7
72
ac
90
89
83
92
89
9e
84
95
a4
99
c1
7e
9b
78
9d
83
96
8f
9b
a7
8a
a5
89
7a
85
96
7b
7c
8e
6f
7b
75
90
7b
8c
91
8b
af
a1
9f
8c
76
70
6e
7e
82
6d
92
9c
85
8c
75
92
73
99
aa
83
92
8f
98
76
81
73
9c
73
9b
76
a9
a0
9e
9a
81
88
6a
90
96
83
91
91
a2
59
9c
7f
87
91
a1
91
8e
75
8d
7c
84
96
69
a0
72
8d
80
7a
7b
85
55
a6
6d
86
65
91
81
80
86
8a
79
88
76
6f
8e
a1
88
8d
69
a0
6b
88
81
91
61
93
7f
89
7c
88
4a
59
c2
77
82
6a
92
7a
92
86
9b
8d
6d
9c
95
a5
79
98
a3
5c
99
9e
c6
6a
7d
88
8a
76
61
85
9c
a1
9e
86
94
85
97
a1
a3
8a
9f
a4
8b
8c
77
90
88
9b
a5
72
c1
78
a4
9f
95
81
82
62
94
61
85
a1
7c
a3
9e
6f
7b
8d
a2
7e
6d
9f
99
a5
8a
97
be
bf
8a
5e
8f
75
96
96
b1
6c
74
8c
7e
5f
7b
a1
8b
9d
8f
9a
9f
92
7e
a0
77
83
82
81
91
9d
85
8b
a2
90
a2
9d
88
9a
7e
71
86
86
85
78
91
98
8d
7a
74
90
8a
97
90
7c
97
80
8c
95
a8
88
91
a6
b3
77
a7
6b
96
86
80
91
73
7f
9d
a9
85
98
a3
9e
90
69
8f
76
8f
7a
81
81
88
9c
bc
7d
9c
a3
72
7e
88
80
99
8c
84
ad
9d
8b
84
83
7d
81
96
93
97
8f
80
73
a5
7f
85
67
90
8f
a8
83
70
8b
80
85
8d
a0
62
94
80
9d
88
a5
69
81
83
84
89
9f
7b
68
97
a6
7d
7e
5b
87
71
7a
61
81
9c
75
8d
6a
7e
67
a6
81
a8
68
7e
92
8a
9c
90
75
9a
86
88
8f
85
69
83
75
7e
76
82
78
8f
90
6c
8c
75
87
b0
8e
7a
84
a9
8e
92
83
9c
8d
85
9d
7e
8f
72
8c
9e
7d
79
8b
78
98
89
84
88
97
ab
90
90
86
8e
71
72
92
92
a1
9a
84
85
7c
7a
8b
7c
8e
9b
95
7b
95
88
96
89
9c
9a
96
87
99
8b
87
61
9f
84
8f
82
b3
8a
a2
6e
8d
8f
86
7b
86
87
84
9d
8c
6f
7f
98
9d
92
68
b2
af
7f
80
93
88
a3
6f
a1
7c
a8
96
7f
8a
9c
82
8f
9e
af
89
7b
8b
80
6e
93
84
ae
8f
89
80
68
a7
90
6f
90
95
97
68
7f
72
a1
95
82
94
87
66
83
8f
8f
78
82
85
85
a1
b0
a3
7c
86
82
7c
71
78
99
94
89
94
82
9d
84
b1
95
9a
7b
90
8d
7f
76
79
9c
97
ad
96
ab
85
86
75
94
8f
81
84
94
5a
a5
6d
86
74
8c
7a
9f
82
98
b6
86
96
93
90
8b
6b
97
99
88
95
92
8d
83
69
82
79
78
a4
80
b3
6a
76
7f
7c
9a
8f
6c
7b
67
93
88
98
8d
7e
92
7f
8c
67
7c
9b
78
75
60
8e
87
7e
73
86
91
74
83
96
a2
9f
81
94
94
85
89
a1
b7
82
9c
9d
8a
8c
96
a5
97
8e
79
77
7d
b1
7b
a5
74
90
90
91
82
94
84
89
86
99
87
9f
ab
95
97
8f
9b
85
94
95
89
9d
88
94
82
8e
a3
99
7e
7c
9f
82
91
89
ad
8d
94
94
7e
91
93
8e
80
9f
81
93
93
89
9a
71
8a
a3
64
70
92
8f
84
8e
8a
5f
b8
8b
73
84
7c
70
7d
95
9b
71
74
82
88
89
7e
94
91
9c
7c
8d
88
aa
7d
6d
99
94
a1
7a
9e
8f
81
7b
a1
87
76
86
8f
96
97
95
85
77
7e
a4
7d
73
94
88
9a
a4
7c
81
81
7e
ab
85
7e
7e
8a
a1
85
8f
90
93
70
92
8e
8f
a7
8f
6f
7f
a7
74
9b
ac
8c
74
77
ae
97
b2
92
8b
77
90
77
91
98
98
8e
82
92
6e
86
87
5b
8f
a3
4d
9c
90
9a
a3
7b
8d
a2
a3
a0
7c
92
81
85
87
a1
86
9c
8b
92
81
bc
ab
88
6d
9f
b9
be
a8
8c
61
b7
72
95
8d
63
97
8d
78
8b
89
84
8a
9c
92
a7
af
70
69
ab
72
66
97
77
7d
bf
7b
6f
c4
8e
b0
87
76
89
9a
a0
9b
8b
80
a1
55
99
91
c4
90
6f
91
a3
82
ab
7e
91
86
69
a0
7a
91
88
84
7d
84
8f
96
81
88
7f
a9
72
a8
97
75
73
6f
90
ad
76
c0
4a
75
8b
b2
88
97
ad
7b
8c
ac
a9
99
83
7b
96
84
94
80
74
7b
81
83
a9
80
a4
7b
a1
89
71
99
8a
8d
77
83
7a
89
a5
a1
87
87
6e
81
92
8d
87
a5
97
7c
a1
8b
93
b3
ae
91
8e
7c
80
a3
a6
8a
95
b0
88
67
9d
95
9c
a7
a5
8f
b1
9d
72
9e
95
8f
99
9f
a0
92
7b
8c
7b
9c
88
81
9b
a4
79
8e
8c
8f
7e
6c
a0
97
79
9d
7a
93
72
8f
7b
6b
77
7b
a2
84
9f
aa
9c
80
7c
7d
71
6c
80
81
7a
9b
87
7e
97
7e
a7
a3
92
8b
8a
96
90
9d
7c
9f
8e
81
9a
92
9c
7a
96
8d
88
70
7f
77
80
83
97
83
8e
73
8c
94
80
92
83
85
a7
78
7a
8b
86
9f
87
86
84
96
97
96
88
85
9f
a4
7d
80
a0
a6
84
8c
97
92
72
7d
a3
96
8f
93
89
75
78
6a
87
88
8d
a7
82
87
95
8f
7a
8e
96
7b
8f
8b
92
89
9c
8e
97
88
87
90
74
84
9e
a6
90
81
95
93
79
ab
8f
8a
a4
88
64
98
8b
a5
93
7a
85
81
87
90
9c
71
8e
62
71
90
75
95
8a
86
8c
9d
98
79
a5
90
70
a2
78
91
91
7b
8f
68
95
7d
a0
7f
98
94
8c
98
80
8e
7c
79
8f
9b
8a
99
90
9d
72
7e
9f
96
8c
85
90
82
68
7d
7c
a9
bb
76
ab
76
88
a4
83
8b
7d
a8
a3
6a
94
71
92
82
9a
a1
9d
a2
b1
6a
81
6a
8e
86
97
7c
ac
6e
5b
95
89
56
b7
98
a3
93
d0
b6
61
9d
49
af
65
8e
7c
d9
cc
b1
81
70
b8
88
a4
40
9d
71
9f
97
72
a0
a1
8d
7c
8a
c8
99
98
6f
88
a8
a7
a8
94
f7
76
b2
9b
a4
9a
a6
95
aa
70
c1
98
9d
96
62
8d
95
86
b4
a0
b9
92
80
ac
62
55
74
bc
a8
78
51
e0
97
7b
96
a5
8f
85
8a
81
cd
94
6f
b8
78
8f
87
87
8e
a8
86
89
9b
af
86
77
a3
7f
91
6b
7c
98
a9
8a
8f
7d
a2
83
8d
91
7d
94
ab
94
89
93
7e
89
9b
70
62
9b
83
90
91
9b
94
97
79
6e
ac
75
7c
8c
81
a9
c4
85
ae
c0
87
87
74
91
8f
7b
92
64
7f
97
ac
b2
81
a0
91
7b
97
9c
82
81
8f
87
73
7d
68
76
a3
87
ad
8c
9e
97
83
72
92
b0
91
7c
6c
88
9f
bd
93
b3
8e
8e
6f
8b
91
9e
81
9e
81
8f
7b
7c
99
8f
7c
84
6c
af
c0
9c
87
75
8d
64
7d
72
96
8a
aa
94
98
94
4d
81
91
8a
6d
a0
8b
81
91
ae
87
9e
91
6b
91
82
93
c7
5f
a2
a5
a3
93
ab
9b
54
97
9e
8e
72
83
8f
7a
84
a1
a7
6c
90
68
8c
90
81
90
a1
94
8a
9a
62
61
6e
83
76
9b
81
7c
9a
8b
a5
90
a9
a4
84
83
9a
98
88
9d
9a
8b
a3
59
66
9c
92
7c
b6
a8
c1
85
87
75
93
a9
9a
a4
b5
94
c3
a8
62
af
6c
a3
5c
ab
99
9f
bb
b3
7d
5a
91
bd
a2
44
a4
65
97
66
85
8b
80
43
a1
7d
b7
9d
8e
64
74
a9
bf
88
aa
8a
59
c1
77
90
9b
9c
a0
ab
60
ba
8e
7b
82
89
ad
81
81
b8
6c
c4
7d
ab
9f
5f
71
90
9a
b1
5e
6a
85
55
af
8b
9b
8d
9e
9e
92
92
78
70
c4
9c
95
6d
8a
8a
82
92
96
7b
8d
b0
79
8f
84
9c
a2
72
a0
9e
9d
9f
af
7d
6e
6c
63
90
88
b0
62
97
77
aa
74
5d
a2
76
b4
ab
8c
5e
91
7e
86
69
8d
8b
7e
7e
8c
a4
9f
93
9c
a4
8c
9d
89
a2
75
a8
8d
a8
93
84
8a
a9
8c
94
86
6e
a6
7c
81
4c
64
60
8f
a1
c7
90
a9
6f
79
ad
6c
8f
88
88
8a
82
a1
62
a9
74
75
72
74
97
83
89
a8
83
96
90
88
99
85
94
82
a0
7b
aa
3a
a7
72
8c
78
82
ad
89
71
aa
8c
6d
70
96
7f
74
95
91
55
73
7f
8f
97
88
83
73
88
73
93
81
6f
84
a4
8e
82
6a
6f
8f
56
80
95
8e
9b
97
99
41
9d
93
84
80
be
8d
84
8d
8f
8a
b7
8b
4c
7a
81
7f
7a
b3
88
93
72
89
90
ba
82
9e
7b
c8
73
90
a7
91
95
bc
56
85
81
98
85
9e
9e
74
b0
92
a7
79
a4
83
8c
7b
64
90
85
9b
88
ad
83
7e
a3
a1
a4
b4
90
9c
9e
77
5a
8b
66
87
7b
8e
7d
b6
6a
65
95
83
9f
b4
6a
82
9a
8f
5d
43
72
8a
50
96
6e
52
8b
60
7b
99
70
74
9a
a4
a9
9e
ad
6e
ac
8d
92
a8
70
ab
80
80
91
9c
68
6a
6c
78
ab
78
7c
7f
ad
c4
87
52
89
62
6d
99
9c
8d
94
a5
98
79
95
92
94
92
c8
95
83
a8
6f
6b
7c
84
8f
9d
92
8d
c1
97
73
80
87
97
93
7e
7b
88
90
8c
7c
62
8e
81
80
9d
84
53
58
8f
7b
80
60
62
9d
bf
8e
66
8c
48
96
3b
9e
87
8a
93
89
8d
83
a0
9e
88
99
81
7f
a2
88
75
85
aa
c1
86
71
98
a7
7b
a1
8e
8f
ab
a4
95
87
90
8c
78
93
80
76
9a
63
98
83
b9
90
80
ac
5f
62
7c
b1
71
86
88
a6
86
85
95
82
92
88
84
9c
94
99
76
8d
97
91
97
70
9c
ab
87
8e
9b
91
a7
a3
79
86
7e
83
8f
9d
a8
87
9c
70
a8
68
87
9c
7d
b3
97
7f
8e
8b
98
7f
75
90
99
83
93
6b
98
8c
94
83
9b
91
91
7c
a3
7f
8b
89
98
93
82
8c
8e
88
a5
94
96
8b
98
5f
74
66
80
8e
9d
b6
97
99
94
76
a9
70
9f
9b
86
6f
9a
8a
5d
99
8a
8b
95
96
95
a0
87
8d
76
8c
6c
a5
77
94
8e
87
8a
81
93
81
a8
75
9e
a4
96
91
7c
95
af
90
96
93
8b
8d
7b
84
8e
9d
8f
92
79
6c
9d
75
7c
6f
7b
78
a1
93
95
6d
90
88
72
92
83
81
96
a4
95
85
8e
74
75
93
aa
7c
87
9b
91
88
8e
9b
b6
97
78
86
ac
7d
94
86
ba
79
a0
89
7c
84
9d
76
a5
77
8c
91
8b
8b
93
8e
99
79
97
86
8b
86
95
94
95
a4
8d
9a
7e
9a
8b
8f
85
6a
9a
93
7a
97
9e
7b
9a
72
9b
98
a0
8f
91
9b
91
65
8f
6f
90
7f
8b
88
ac
8e
70
8b
78
74
93
6b
82
90
8f
6c
74
7f
83
78
98
74
74
81
66
99
99
79
74
93
9f
9a
ad
9f
7c
ad
88
a8
a5
7a
98
7e
83
88
a3
6c
68
77
7e
bd
6c
74
95
89
80
94
68
8e
7c
8a
91
a3
8b
8e
8f
85
8a
8c
7f
97
97
ba
91
84
a9
85
84
8b
72
a4
78
80
88
9a
9a
98
96
7a
9f
8a
80
96
9c
79
8b
6b
75
b6
74
a3
99
80
6b
68
9f
82
66
73
7f
71
ae
84
86
85
7a
8a
8e
91
8c
6a
a7
74
96
82
85
86
97
89
91
93
79
b0
8b
80
bb
8e
a2
78
a2
92
8a
8c
77
98
a4
8f
90
90
90
7f
80
65
6e
78
6e
89
7e
ba
73
8f
7b
81
89
7e
6a
70
6c
5f
9d
9b
71
90
9c
99
78
95
6f
8c
a8
86
89
94
8a
7c
8a
69
88
a0
85
a0
74
89
94
6c
66
84
7f
80
84
78
9a
83
6f
6f
a3
86
50
87
6b
7e
9b
78
80
94
92
77
97
6f
6d
7a
a0
89
87
92
7c
82
8f
60
94
8f
9f
78
8c
8d
9a
99
9e
98
9c
90
98
84
9c
6b
93
89
85
9c
72
81
a2
a4
9c
9e
6f
80
a8
69
85
88
82
87
a1
7d
76
ae
7e
89
93
80
80
94
8a
83
79
5e
56
81
a4
7f
99
76
94
a9
83
7e
a2
7a
96
93
99
8f
6e
a8
6c
77
80
82
95
69
8d
b1
7b
86
9a
82
75
80
72
7e
a8
a1
79
9a
92
92
99
70
7f
bf
80
8d
ad
85
69
87
99
b8
98
72
8a
9b
8c
8e
74
7b
a1
98
aa
c2
85
95
91
a4
9b
85
b9
88
9b
73
a6
78
9d
81
9b
a5
b1
90
7f
80
75
8a
97
7f
94
90
8e
80
85
8a
9d
87
8c
95
80
8e
6c
a0
76
80
94
78
a3
8d
95
8b
8a
90
88
81
9c
9d
a6
99
88
9d
79
72
7f
74
79
77
6f
8c
ab
65
7e
83
7e
8c
94
82
9e
a9
8f
71
76
70
9b
70
87
77
67
a3
5f
82
b2
86
88
ad
a3
a7
9b
7e
85
a3
9e
9c
98
79
9c
a1
6d
8f
97
76
74
84
87
8e
82
8a
83
9c
a7
86
7e
92
78
74
7f
a4
88
9e
81
94
8e
98
74
b5
8f
b1
97
8b
8e
85
84
95
9b
8d
9d
aa
a1
a8
8e
66
88
72
8d
84
67
6e
76
a3
90
72
86
7f
84
7a
77
7b
6f
73
95
a8
74
81
7b
7b
9a
88
6c
9a
7a
72
85
96
94
91
7a
a8
6a
93
68
73
99
82
79
8d
a6
87
8f
90
93
b1
a5
82
a1
9d
8f
af
8b
87
ad
86
8a
99
82
6b
83
8b
90
7f
7c
8f
af
8a
af
9e
87
7e
7c
94
a2
88
62
93
7c
72
6e
88
9c
9c
98
98
75
98
a3
a1
9d
65
a4
81
7e
80
9a
94
80
83
92
8f
a3
8e
70
6c
9e
93
85
9f
a2
75
a3
6f
a4
6e
8f
a3
8f
ad
7b
9f
7c
84
90
82
83
7a
7f
99
96
70
94
82
97
8d
94
80
aa
9d
7a
83
93
a9
a3
8b
7c
96
82
94
a3
93
76
6e
85
97
83
81
78
8c
9e
7c
88
9e
78
78
b7
7a
92
a7
9a
79
7b
a0
82
9d
8d
75
7b
93
81
91
8d
95
7f
88
7d
87
9f
84
9e
89
77
87
84
93
8f
93
8b
83
81
91
86
73
7e
87
84
7d
9d
8c
82
9d
73
88
91
63
6d
91
92
a9
8b
95
7e
a0
75
9a
99
79
69
83
7f
8c
93
80
91
7d
97
7b
9b
9b
8b
89
97
8a
87
86
7d
85
9a
91
98
8b
83
87
90
7f
8a
91
98
83
98
84
a3
90
80
89
8f
81
a8
92
a6
6f
74
a0
a0
86
8e
9c
82
75
9d
96
86
90
6d
9e
67
bb
73
85
9e
65
81
c1
6c
97
7a
8d
82
ab
a3
88
b7
8d
9d
a8
70
63
a4
6e
7a
74
9a
67
a4
82
7f
a2
94
6c
a8
74
7f
98
a9
5a
77
61
7d
58
88
72
60
bb
63
94
b4
8b
8e
9c
aa
88
98
a1
6e
91
90
94
a2
67
9d
86
6f
71
ad
59
77
83
6f
8f
79
73
87
89
a1
73
76
93
92
7f
8e
90
97
9a
9c
77
95
93
8d
96
a4
c5
95
94
a5
80
70
cf
5c
9c
9e
7f
ae
aa
75
84
a8
a4
c0
8d
72
99
66
ad
90
85
ae
7b
6a
92
5e
74
3b
82
94
6a
88
5e
75
6b
5d
85
3e
c5
94
92
7d
86
9e
a4
7a
9a
89
7e
95
a6
57
62
7d
7a
78
85
9d
83
b1
9c
8b
97
76
7e
97
6d
78
b2
b9
b1
a8
cc
7a
5d
6a
9c
87
99
a3
91
6d
a8
8a
79
86
b4
67
52
8f
6a
6f
75
82
9d
85
a7
a4
80
7d
71
83
a0
9b
ac
94
98
8f
9c
7b
81
66
8f
99
89
7f
77
58
72
6d
9c
92
9a
9b
8f
83
7e
b5
b1
99
81
89
9f
8e
a5
8b
8b
93
61
9d
95
5c
94
72
92
91
70
99
a1
8b
75
a3
7b
a9
98
95
7a
7d
91
92
69
80
88
9f
9e
a2
84
93
96
8d
7c
8f
9e
9c
9f
81
92
98
95
af
89
88
8e
a1
96
9e
b4
70
95
7d
8b
9f
97
7a
8b
82
90
79
77
79
98
9e
8c
94
8c
87
90
ba
ae
74
86
8a
7d
ba
92
83
5f
81
a5
83
94
8f
9f
9f
8f
81
5b
bc
85
74
9a
94
80
9e
91
77
94
89
8f
8e
a0
8a
8b
9b
8f
77
60
7e
96
6e
98
a0
7e
8f
71
75
9d
92
95
87
7a
7e
89
7e
7a
b1
94
ae
70
87
7f
b1
86
7c
8e
6c
96
6e
6e
9b
aa
a6
9e
8d
72
90
7f
6f
7a
8f
83
9e
92
94
89
9f
93
85
99
83
b3
84
90
a2
9e
98
ae
8b
92
7a
8c
8c
84
b3
99
70
7b
82
94
7f
88
a5
94
9c
6f
89
7b
9c
8e
88
80
9d
92
8d
a0
86
9c
7a
83
87
81
88
90
90
90
81
9d
87
88
9a
8f
92
77
95
7f
9b
94
96
80
8d
8c
84
97
99
90
94
97
91
86
78
82
93
84
81
ad
78
a5
73
80
9c
a4
7c
83
88
93
95
86
73
83
9a
8d
a6
93
9a
8d
93
7a
a5
a2
85
8b
9b
87
94
72
7d
8e
96
a7
99
90
76
6e
9e
bb
72
82
93
97
a9
ae
a0
96
95
a3
90
64
b2
89
55
8a
99
77
b2
9e
83
a7
82
78
7c
9e
65
7c
8f
9d
94
aa
a8
9d
a7
9d
81
a2
89
8c
8b
9d
ab
98
bd
a3
a9
8b
76
a5
a8
7f
91
7c
8b
68
a0
98
9a
98
82
9b
76
8e
a1
8d
a1
8b
a9
9a
8b
7f
96
91
95
90
91
85
97
9a
8f
8f
6f
9d
72
79
8f
95
92
ad
90
7b
8d
72
9a
6a
9d
ac
92
97
65
af
8f
86
85
87
9e
8b
82
76
ab
94
c6
94
a3
8d
9b
96
a6
98
97
66
8b
64
a9
75
6e
7d
71
7f
83
6f
80
aa
8a
7f
96
7d
9e
98
8d
8a
67
a9
9f
73
96
5e
5e
aa
93
76
90
66
8d
73
6c
79
8e
ce
79
7a
67
8e
a7
42
be
75
93
a5
ae
af
7b
61
83
84
72
7c
99
80
8b
a2
8b
95
91
7f
a9
9b
8e
9c
8d
8e
81
92
5f
78
99
9a
64
a2
59
ac
89
84
9a
7a
9a
8d
a7
7e
c1
93
c8
a0
8a
8f
ab
84
9d
6d
8e
8f
81
94
9c
66
48
94
92
67
80
8b
73
86
7b
78
83
6f
8b
84
92
bc
7e
76
8d
95
8c
93
63
9a
a4
93
8d
77
72
77
90
78
74
a1
70
9e
a2
9c
a5
50
ba
63
93
91
ac
6f
68
76
a8
63
8d
88
d1
89
9d
81
96
89
81
75
83
a4
8d
98
86
90
92
a9
75
9a
76
87
88
8c
78
8c
6d
7b
91
86
9c
96
7b
81
a1
7b
a1
8b
8e
87
89
94
a7
8b
83
85
8d
76
86
8d
6d
99
72
bd
91
81
a8
82
8c
90
92
6a
6b
88
81
a4
7e
95
95
84
8c
87
7d
a8
7e
73
71
73
7c
a3
9a
80
6d
89
79
93
88
87
9f
7c
a9
84
8c
83
9b
9f
82
7e
94
70
98
87
99
73
98
86
a1
89
a0
8b
98
a4
9c
98
95
92
9c
81
99
77
74
8c
98
96
63
94
98
8a
9a
6d
98
86
8e
83
b4
95
a3
7c
80
7b
7f
a3
a1
7a
7b
9c
75
70
8d
7e
65
9d
7f
93
89
81
69
7b
a1
83
84
ab
93
7d
7d
81
6f
72
a0
8c
7b
93
8d
94
8e
8f
71
87
87
89
89
8a
9b
9b
88
84
84
6c
9c
74
7f
7f
7f
80
9b
74
7a
8c
a0
9c
88
81
96
80
87
91
88
a0
95
a2
b9
6c
8c
87
91
ae
7b
9b
9e
8d
a5
53
a4
a7
76
84
77
7a
94
87
95
83
a6
67
94
64
a8
92
88
a1
9b
78
7c
94
bd
9c
70
7c
96
7f
77
95
8e
92
7f
70
ac
ad
76
7a
86
9e
94
67
59
8f
87
95
91
7c
79
7a
80
a9
b5
a0
9c
98
9e
8a
83
9a
81
84
77
9b
82
94
6d
7e
c1
77
86
b0
a6
6f
6a
96
a4
8b
a4
a0
99
93
96
81
66
88
72
94
9a
a4
98
56
83
94
92
c1
9d
79
81
77
7f
84
6e
93
61
7c
8c
a8
88
a0
6e
6a
94
95
98
78
74
97
7b
9a
ca
9d
87
9d
7a
8b
a8
a4
7a
a1
82
a9
6f
61
92
a7
91
5c
77
7e
9b
69
86
9a
b4
85
8e
98
c2
83
66
b0
aa
89
aa
9a
9f
84
71
b9
91
6b
76
a2
76
9d
a5
a0
7f
5c
ac
8f
52
6c
8e
4b
a8
65
a4
6d
85
70
a4
81
9b
95
92
98
83
af
85
82
7f
99
8b
8e
8c
7f
74
88
b0
98
7c
92
8c
91
86
94
c2
94
98
7b
95
8a
95
a3
a2
a8
95
96
73
98
9e
7f
66
83
97
9e
57
a4
84
a5
74
7e
a1
7a
8b
76
90
80
92
70
8a
72
bc
9f
8d
78
8b
90
91
98
93
7f
b3
a3
81
82
a6
8b
87
90
88
a2
67
8f
89
93
9b
8b
6c
73
69
77
7e
7c
8b
9b
80
7c
70
91
6b
8d
a3
89
7d
9c
89
8e
8c
86
70
ad
6f
93
67
5a
85
7c
73
7a
81
77
60
a2
73
6d
8d
83
81
76
ab
65
af
93
97
83
6b
8f
b1
98
94
b1
6f
76
a4
8c
72
95
7a
8e
70
75
93
9f
8c
8f
7a
99
ad
7d
93
a1
a1
b8
7e
93
8f
99
92
af
9d
5d
9b
80
7d
b2
73
8d
84
86
58
7f
62
8f
73
89
6c
83
63
84
72
82
83
85
92
6d
70
51
90
9e
b2
a5
8d
8e
85
86
ae
9b
94
75
80
7b
77
b0
8d
7c
6f
96
8a
a3
90
79
74
86
96
55
88
7c
a7
87
83
8a
8e
ae
81
90
91
9e
c2
90
87
92
79
b0
84
ac
91
87
a1
c5
6a
77
a5
86
86
89
6c
63
b9
72
87
7e
7d
9d
83
a3
9f
a2
c5
b5
9e
74
a5
8f
a1
84
80
e0
80
a1
78
80
87
c7
75
8c
87
71
9c
bd
68
74
9c
7b
b8
55
8f
74
ab
a1
a7
7e
7d
79
a7
97
6b
96
8b
6d
82
99
9a
a1
8a
79
8b
88
88
a5
8d
82
8e
a8
8b
9b
88
83
b9
8e
80
67
7d
73
86
7b
71
a1
87
9f
6f
7e
7b
92
7f
93
98
89
87
9b
67
64
80
a7
6d
6e
83
8f
73
7f
8d
86
99
8e
78
a5
bb
a7
82
b5
b6
79
b2
79
b2
91
78
b0
8d
76
57
8f
95
9b
a0
8e
95
98
6e
99
77
99
95
86
83
69
7c
a1
7e
82
7c
7f
91
88
82
87
8e
9d
8b
76
90
91
92
92
71
7f
8e
a2
6c
8d
71
84
7b
92
84
8e
7c
a0
9e
91
83
80
8c
97
a2
84
97
99
b4
99
90
8c
76
8a
70
5f
aa
89
94
a0
77
75
8f
75
a9
79
8d
7e
89
9d
7e
8a
77
7e
6a
97
ae
8f
9e
94
8d
8b
92
ab
86
a5
99
8b
99
92
80
98
aa
aa
93
98
88
89
7d
98
7f
6f
ac
8a
ad
55
82
74
7c
9a
8c
80
a0
72
7e
9d
73
8c
7d
77
80
8a
9a
91
72
84
8b
ad
96
7d
7a
8b
9a
9d
79
7e
76
b8
a8
84
84
6b
93
9b
91
90
a4
8a
a8
a6
98
8d
5a
a0
89
63
87
9c
7b
c2
a7
6a
84
b1
7f
68
76
87
7c
88
a5
80
8e
8b
65
a2
b9
aa
81
af
a1
82
7f
7c
a5
68
98
a3
87
9b
62
9a
76
9f
8f
8f
97
9f
a3
b3
60
88
9b
a3
87
82
66
76
87
8d
97
99
95
a0
a9
76
8a
8b
8e
8f
9b
a9
76
85
85
59
8d
a0
95
96
81
93
80
a1
8e
82
68
90
a0
74
8c
7e
99
6f
83
84
77
9d
7e
a9
81
b9
80
ab
73
a8
8d
83
76
86
8c
7f
81
79
8a
92
89
79
78
96
9c
69
a6
8b
90
92
9e
8a
90
9c
8d
87
83
a9
99
94
98
85
7b
90
73
aa
8c
b7
b1
59
a6
a0
95
72
98
89
94
78
9e
90
7c
82
95
a1
8a
7a
7b
8d
a9
5f
87
6a
ba
7a
72
83
9a
ae
87
6f
9e
af
73
84
85
85
8c
89
65
7f
77
6c
a9
6e
86
93
8d
88
96
9e
8f
9d
9c
87
a4
85
6b
77
8e
96
70
75
63
7d
99
a5
a0
91
9a
a1
7e
7d
6c
74
a8
60
aa
ad
9c
79
97
7d
9a
68
a4
74
80
86
81
b2
ad
95
86
7e
b4
b3
73
66
75
7a
70
6d
c0
a3
89
a8
87
8a
89
a1
7f
71
6e
9d
b9
a7
8c
70
ab
ac
80
80
8c
99
99
73
b5
b2
79
7e
96
83
83
8e
a7
89
74
a1
9c
6e
7a
89
95
79
b3
7e
89
8d
7d
7d
50
83
75
ba
81
64
96
76
83
54
80
7f
76
a8
6e
81
90
61
62
73
ae
d4
7e
6d
53
9b
7f
a5
ab
85
9a
74
c3
66
83
89
a4
67
81
78
96
79
92
af
7e
62
8c
7a
95
73
82
95
5d
6f
91
9f
6d
93
a0
88
7d
80
c1
9f
60
81
a7
7d
ab
75
b0
5e
62
9b
76
92
76
7a
8e
51
53
74
a4
71
7d
98
7f
8e
89
a6
81
56
57
80
ae
83
80
80
a6
ae
67
86
7d
9f
93
84
9b
82
bc
83
78
93
af
47
78
83
61
78
80
74
84
69
a5
6f
bf
a2
80
7b
7f
94
76
94
71
77
6f
51
8d
72
8b
90
6b
7d
76
74
66
6d
70
80
7e
67
77
97
a1
b5
8f
7a
81
38
a5
52
57
9d
85
7e
7a
7e
71
8d
a7
9c
8c
9f
81
74
8a
95
73
8a
8c
a2
8f
93
9f
7d
92
77
72
95
7a
9b
96
a5
8a
91
9d
72
63
74
9b
8e
8d
99
86
9d
76
92
97
b5
76
a3
a8
72
9a
70
b0
5e
7c
6c
72
9e
b3
82
91
a7
9b
70
a6
90
8b
b7
99
87
8d
8f
92
8f
8d
b6
a6
95
76
7c
6f
81
74
99
7f
9d
8e
7e
93
96
7f
6a
7f
8a
a9
73
9b
82
68
8e
72
99
80
a5
84
87
c5
7b
98
80
9d
6d
78
74
77
9f
84
8d
b6
8c
8c
71
8c
6b
a8
87
57
67
76
80
9a
78
88
8e
7a
8d
a0
a0
96
a4
93
8d
ad
7c
6b
71
91
98
ba
5f
7d
74
a5
75
88
a7
a1
93
98
94
77
7c
ab
6d
9c
a5
97
80
ab
a3
91
8d
a0
98
7a
aa
9b
a0
a0
9c
79
8f
91
9f
77
73
5c
89
57
78
ac
b0
7b
97
7d
ae
87
80
7c
6e
81
96
8d
a7
b0
7b
a2
a0
8b
9a
92
9a
7e
90
9c
b2
71
ac
96
95
96
79
9e
83
9b
a5
86
70
91
a6
82
86
95
6f
7e
97
9d
92
68
92
84
9f
7f
6f
7e
80
79
86
bf
80
77
ae
7e
85
a6
63
5b
84
aa
b1
7e
71
6d
8f
71
92
c0
7d
91
80
9e
7f
82
97
94
7f
89
86
93
89
a0
89
64
62
ad
88
57
90
7c
9c
8d
8b
6f
9a
70
95
84
80
9c
6a
a1
99
53
9a
a0
73
ac
79
a2
8b
6c
87
76
98
78
89
7f
7a
61
74
87
8b
b6
7d
99
aa
8e
ae
a2
87
5f
99
b8
5b
62
8b
a6
b4
79
73
85
90
95
a1
9d
a1
b4
9a
91
a1
81
6e
9f
9f
6d
7a
6c
8b
8f
75
88
91
c4
a4
90
77
95
8c
92
a3
86
8c
8f
61
8c
98
a3
93
90
6c
74
67
67
5a
87
99
6e
7a
98
9d
b9
b6
66
5d
86
6e
91
4e
8c
79
73
9c
6d
8e
88
7f
86
99
8f
8d
8b
89
8b
9a
77
93
6d
9c
68
8d
96
6e
99
70
6d
96
7c
89
7a
96
84
8b
9a
83
8e
a7
88
89
80
9c
94
9b
74
9c
9f
9b
70
aa
90
72
85
98
a9
85
84
75
8a
84
95
8b
87
9c
9e
95
8c
85
91
a5
a3
a5
85
7f
96
81
80
85
9b
9c
85
83
97
80
95
7a
8c
95
8b
8b
94
a3
8d
8e
8a
9d
a0
85
8f
88
9c
85
87
a3
89
a9
85
94
8b
92
9c
89
99
68
93
99
6a
97
76
93
82
91
92
7c
89
85
8a
97
74
8d
89
96
8c
7b
79
99
9e
8c
8d
8c
a3
94
a5
75
99
86
91
7f
99
85
93
72
67
8c
a8
8a
89
8a
94
95
87
88
86
a2
a9
75
71
b0
86
90
9a
98
86
95
90
84
91
90
9c
97
93
9f
92
8f
a4
6c
93
84
76
87
88
90
9e
a2
83
7c
9c
ab
96
79
ad
80
87
9a
7f
82
aa
84
83
8c
7a
99
9e
8e
98
91
8b
af
6c
bd
81
7a
93
72
a8
95
a1
a3
7e
8c
7a
b1
8d
88
83
6e
64
84
7b
89
65
83
73
9d
97
77
93
a2
9a
83
aa
6d
7c
c2
64
6a
85
85
83
78
99
a0
82
ab
69
a3
8d
82
8e
99
9d
85
99
6c
96
7f
ae
8b
94
75
83
a1
94
92
73
72
a4
93
70
8d
86
a5
6e
95
69
82
9a
b3
84
7f
8a
8c
78
8a
7f
82
9a
94
a6
62
c8
93
84
6d
75
6e
8d
a8
87
91
7a
68
6c
66
b4
9a
6e
8e
81
96
9c
95
89
8d
82
70
75
8e
95
8e
89
89
8d
88
7f
a0
83
ac
a0
9b
8c
85
83
97
77
84
7d
7b
89
88
63
85
8f
85
a9
79
a3
7a
92
b4
7c
9d
8b
94
86
77
8d
ac
ba
81
8f
ab
96
81
81
83
a6
bd
6d
78
be
91
a0
ab
73
81
8a
93
8f
71
7c
98
7f
a9
88
92
95
83
89
95
93
8d
94
82
9b
8d
7c
6d
8a
a2
88
6e
8d
9b
94
7f
8c
85
93
92
96
a6
63
97
a5
85
af
91
7e
95
68
78
84
af
5f
a4
94
81
9e
b3
79
7d
91
88
a2
98
86
71
9f
91
93
7b
a8
8b
96
98
77
92
83
88
95
85
a7
89
a2
85
8c
a4
99
87
a0
95
8a
88
8f
87
88
b0
80
92
88
88
7a
88
98
89
93
96
b4
7b
a4
8a
92
bd
95
cb
8e
97
8d
5b
89
84
ac
73
9e
9a
7c
9e
8e
9b
91
73
68
9b
92
91
91
9f
8d
88
85
72
95
93
90
a3
7f
a2
8d
7c
92
8d
81
a0
b2
a3
86
96
95
ab
85
94
90
88
8d
8f
91
90
84
8f
8b
9c
80
79
a1
81
93
7f
9d
98
91
96
9e
9d
98
7b
83
94
90
86
a1
72
80
82
8a
79
84
80
89
9a
a4
8d
8f
89
81
7f
81
78
8a
80
96
9a
92
9d
7c
9e
81
85
92
76
85
85
98
79
88
8b
7d
88
a9
81
74
8f
75
a4
91
9b
a2
70
8f
7a
8f
6b
96
6c
8d
8f
a0
83
7a
88
72
9e
81
7e
93
88
94
91
8d
93
80
85
7d
b1
96
a7
85
7f
84
86
95
88
9b
8a
84
85
8d
80
90
94
8f
8b
97
85
9a
86
95
84
83
a2
a0
a3
8e
9b
8d
81
89
89
6c
8c
7d
94
7c
9f
9a
99
7b
95
8b
81
6f
99
b2
96
91
a0
7c
96
7f
64
a2
9e
82
7a
88
91
8c
9a
61
80
7c
7d
9a
a1
9f
9e
8d
96
91
89
8d
6b
82
96
8b
81
8d
61
b0
8c
76
93
98
9a
7d
96
81
92
85
77
8d
8c
5f
9e
7a
7d
7d
98
a2
93
7f
77
96
7f
aa
7f
98
80
92
9a
79
77
95
9c
9f
6b
aa
94
ac
99
98
99
99
90
83
a3
76
6f
8f
a4
70
85
6a
94
7e
b4
70
83
98
8b
93
66
81
99
77
9e
97
9b
7b
8f
7c
9a
7a
8c
a5
86
8d
69
7c
8f
87
70
85
8d
8c
a1
6b
79
8d
a5
71
8e
8b
70
79
9d
86
7e
73
7e
a0
8c
a0
74
80
94
a2
9c
74
66
7c
93
77
9a
87
73
a9
9e
93
66
ae
90
9c
80
98
79
7b
92
7e
7f
98
80
88
b4
8a
b4
90
8e
91
7e
84
92
a4
9a
80
89
7a
61
c4
95
9a
7e
8b
96
67
5e
77
86
8c
a1
9f
88
95
70
8a
8d
9d
9f
7b
7f
81
b5
73
8f
c2
92
97
8b
79
8e
80
81
8d
96
79
a4
6f
8c
6c
a6
82
9f
9a
83
8c
a0
a7
7c
61
60
b0
af
a4
76
8c
8f
b8
a1
75
67
61
a0
71
9b
81
75
b1
90
b6
61
a0
91
ac
7d
8e
80
74
90
80
86
95
82
8a
a2
a0
b1
94
98
8c
83
88
70
9c
81
76
99
7c
7a
d1
93
b8
6b
98
9f
74
6f
75
92
a4
99
a8
98
b4
6a
9d
90
a8
9c
7f
9c
88
b1
7c
97
98
82
81
65
80
67
7d
7d
79
87
8b
7f
72
7e
7f
a4
86
97
8d
7d
88
a7
97
75
6f
92
a0
93
91
89
9b
a1
8c
8b
73
7a
9d
99
53
a2
80
76
8f
a1
9c
73
be
82
a2
83
8c
72
94
8b
80
85
97
8a
90
a4
8c
9f
9c
89
9e
9b
ac
96
a7
7b
8a
87
8c
7f
b9
8f
b5
74
89
a3
83
65
7e
9c
a2
9a
99
7f
af
79
80
87
78
96
6c
a0
84
bf
7b
8a
96
7c
7f
75
85
67
96
68
84
a7
77
87
76
7b
9a
ad
7e
9a
80
59
87
ae
9b
6b
6a
9a
b0
80
7c
a2
b7
a8
aa
90
6c
85
81
9a
58
a6
84
7f
9b
88
a0
7f
be
8a
aa
81
7c
5e
8c
88
8f
71
8e
79
7d
a2
92
ad
93
93
8a
90
9b
88
bf
8b
a3
83
7a
76
9f
98
a6
7f
8c
9d
90
73
78
ad
ad
99
ae
7e
bd
78
9c
96
79
ad
66
96
78
9f
90
82
a7
72
82
6a
99
80
7e
62
8c
99
9b
a7
66
8b
71
b5
87
84
68
50
8e
a0
93
70
75
93
8f
84
91
8f
b2
95
ab
8b
5f
5d
78
92
5f
96
85
64
a4
a8
a8
66
ba
88
b8
8e
8f
84
91
86
96
70
96
78
99
9b
9f
b1
9d
93
8f
a1
82
90
ab
a8
9d
79
8a
5c
ac
9d
a9
87
86
a2
77
54
56
77
86
a3
85
98
b6
6e
97
91
7b
a2
7b
87
8b
a0
6e
84
95
7f
7b
78
94
79
8a
83
7f
8e
85
a0
77
7f
8c
9c
87
9c
64
72
8e
9d
86
71
96
7d
9a
8e
9f
8b
a4
91
9a
94
69
71
8a
86
5d
8e
87
8a
a3
92
9a
8c
b4
8e
97
5f
9b
85
9a
82
9a
80
92
88
a2
9f
96
9a
87
96
8d
99
79
95
a0
85
90
7c
76
6c
9e
9c
a5
76
90
b1
89
7d
59
91
86
9f
8f
89
8c
80
91
8f
7b
8c
83
9f
7c
a2
7b
84
a6
85
8f
6f
95
58
8d
72
89
a4
7e
8f
84
7d
8b
a4
89
99
76
74
92
9f
96
76
77
a0
8a
94
8d
92
9f
a6
94
9d
67
73
a1
9a
59
a9
86
76
9c
97
90
78
c3
78
9a
7c
89
6e
8c
89
80
6e
90
71
8d
ac
8f
8c
8d
91
91
ae
7f
9b
b7
86
9a
83
85
71
a6
8e
af
90
96
ab
8a
75
66
aa
96
a8
97
81
b3
6c
91
97
79
87
8c
96
79
af
79
75
95
73
7f
6b
91
54
97
66
77
a0
76
87
7e
81
97
94
72
81
80
63
90
aa
8f
71
75
87
a3
80
73
98
b4
a6
a1
8f
6c
7e
80
87
67
92
7d
8b
a9
7f
9f
78
c1
7e
bb
74
80
86
90
8a
91
78
81
6d
9a
96
84
a2
91
92
8a
b0
87
95
b4
93
a9
78
79
7d
a3
8c
ac
91
97
a9
a2
71
76
ab
92
a1
ac
87
a9
7f
96
97
72
9b
6e
91
78
97
89
70
93
7b
91
76
8f
99
89
63
96
99
a7
9e
6c
8e
7f
b2
80
93
66
6e
94
70
84
66
97
8b
b5
81
b6
8d
b6
91
b6
89
6f
73
8d
83
7c
9b
84
5b
a6
99
9f
82
b5
92
a5
80
8e
96
8a
7d
98
7c
9d
7c
94
a0
a4
8b
9f
a2
99
95
75
93
a6
9e
97
6f
8e
72
89
95
97
88
87
a4
7e
6e
71
97
96
8b
a1
86
99
79
8e
9b
84
8c
6d
95
85
8b
7c
81
86
85
9a
94
71
7a
80
91
71
a3
8b
8f
77
7d
75
88
7f
96
77
7e
7b
90
7a
93
70
93
9f
9c
85
85
9a
88
90
8c
93
81
8d
89
66
a1
9e
84
a1
9b
89
76
a0
77
9c
7d
91
78
91
8f
7d
86
ab
8d
96
9d
8f
92
7f
a3
8e
99
85
7a
96
90
a6
8f
85
91
9f
96
ac
8c
83
82
8a
6b
7a
81
8f
91
9b
7c
87
71
a1
97
8d
87
a2
97
6f
a8
8e
7b
8f
85
93
5e
62
7f
97
78
8e
9b
7c
a1
79
87
88
a9
83
82
80
78
7c
a0
86
81
84
8d
86
73
7d
9c
a8
a8
a5
93
75
7d
96
85
5d
8f
7a
80
a0
95
94
7b
ae
7c
95
87
8f
7e
9a
94
9c
69
af
81
8f
9a
95
8f
91
9c
87
9c
6d
85
97
7f
a8
82
86
8a
85
7d
a1
7b
81
b0
a1
9a
8d
b8
94
8e
8a
7c
93
89
a6
99
76
84
87
a1
85
ac
7d
79
8c
7f
7f
7b
8a
75
9d
73
8f
9e
83
90
7a
85
9d
a2
74
90
81
7f
87
93
7c
6a
85
99
9a
84
80
9d
a9
97
b4
96
6e
88
86
88
6d
83
6f
84
a6
8f
97
81
b8
6d
ae
92
98
69
82
91
8c
78
94
79
8b
99
88
9f
97
9c
93
99
85
88
bb
8d
9d
74
98
88
81
98
9c
95
92
ab
88
6a
84
a2
8e
9d
b9
8f
a0
72
93
a6
68
91
86
90
8a
8c
85
a5
8f
90
a3
a1
c3
80
72
61
8f
93
7c
ad
76
86
a9
b8
83
ad
7c
af
76
86
8b
88
79
92
70
70
97
73
87
a8
a2
66
92
61
99
89
7c
7f
9b
a1
af
8c
81
80
b3
79
81
84
6d
8d
a5
78
75
96
64
69
8b
68
8f
86
bb
59
8b
95
8e
66
83
6f
a0
b4
87
73
a4
ad
92
a7
87
80
8b
94
5f
74
89
99
8d
9d
86
8b
7a
5c
75
96
83
93
8b
89
83
ac
8d
97
b1
a7
d5
7b
6e
66
8c
8d
6a
b7
72
82
ae
b5
7d
b3
7f
b9
6f
95
87
8a
7e
89
65
6e
84
6a
87
af
9a
70
8e
5e
8b
88
86
7d
aa
a2
ab
80
7d
74
b4
71
80
7d
7c
96
ad
77
6d
98
6d
67
94
6f
8b
8e
cb
5a
84
8d
85
66
88
67
9b
c7
80
7e
b5
ad
97
9d
8c
88
91
9b
50
76
80
8f
82
93
90
89
70
53
75
95
88
88
86
8b
99
ac
90
97
a9
a1
c7
7a
6e
5d
89
8c
6a
b3
70
78
ae
af
7f
b6
71
b4
7a
99
8c
8d
74
92
63
70
8c
70
8a
a9
a5
66
7a
60
9c
8d
7d
86
9e
ac
b2
83
71
69
be
66
83
85
70
93
ab
7a
7a
86
6f
67
90
6e
82
92
be
5a
78
9c
8c
65
90
6a
9d
bf
7e
7f
b1
b0
8d
93
86
80
9e
a9
59
81
84
93
85
8f
8c
83
71
5c
6d
8e
7d
9f
82
81
8a
a0
90
a0
b2
a1
c2
7b
77
60
8f
8c
64
ab
60
76
a5
ad
71
ba
7f
b2
82
8d
9e
95
85
92
63
6e
8e
76
85
ac
a9
65
7c
5c
94
7f
81
80
a4
ab
9e
81
71
69
c8
5f
7c
88
77
97
9d
87
7b
85
74
70
93
70
89
92
c1
5c
7e
96
8a
64
89
6c
98
bf
87
7f
ad
be
8b
a0
8c
7b
9c
9e
53
7b
8e
9c
89
a0
97
8f
6f
5b
72
9b
95
72
8e
6d
95
8d
82
93
89
80
a1
8c
94
74
73
b4
81
a0
a7
90
85
82
a8
89
7a
97
9a
88
b3
68
61
9b
94
6c
63
a9
d1
92
a5
9b
5b
81
5d
a2
6f
43
6a
73
a1
53
7e
71
8d
84
89
ac
65
85
6b
69
a1
9b
8e
82
8d
90
b0
a1
9a
92
92
71
70
9e
98
ae
6c
bc
7c
71
87
7e
77
7b
a3
85
b1
97
85
84
9d
6a
55
7e
b9
73
95
9b
6d
ad
74
93
58
7c
b5
9c
5b
b1
78
8f
99
9a
a7
97
87
8e
b3
9b
a2
58
98
9a
6f
6a
87
5d
88
7f
a5
9f
8c
96
9d
75
9c
a2
da
75
b3
76
78
63
6a
77
8e
6b
b1
7f
a1
a3
82
62
95
7d
a6
94
a3
6a
84
a5
c6
5c
65
88
78
70
85
61
ae
72
83
90
88
92
b9
c9
93
93
a6
82
75
99
89
aa
9b
b5
8c
ac
96
80
60
97
99
8c
8c
b0
79
b1
62
7f
b4
a3
78
75
81
98
6c
66
93
af
6b
7d
ac
9d
89
a1
74
8e
78
a3
91
82
7b
95
8f
86
9e
7f
9a
92
9c
aa
56
6d
6c
a9
98
71
a7
9c
6e
72
71
75
90
98
9d
8d
a5
7f
75
77
aa
a7
99
73
86
a6
7b
80
94
99
81
7e
82
82
98
8e
91
84
a2
89
73
a3
a7
9b
a6
76
b0
8c
90
5a
80
80
81
64
89
83
7d
92
71
82
8e
69
ca
af
66
7e
94
8b
75
95
85
7c
71
82
a2
72
a9
4d
a2
70
50
7c
94
83
8f
84
94
76
94
78
84
55
7f
88
79
8e
95
a3
aa
9d
6f
8c
70
8a
91
7c
b6
83
83
92
7d
88
96
76
90
70
9a
93
8e
89
a4
92
9d
94
8f
a1
8e
5c
9c
7c
66
b1
81
99
7d
6a
8c
6f
ab
64
6e
a1
6c
90
44
81
82
a1
94
7f
77
79
9f
8f
6e
7f
87
98
81
95
71
9a
8f
73
84
a1
84
96
99
9a
82
7e
85
b4
6f
87
93
90
7c
83
98
93
82
82
94
97
76
81
5f
80
8c
a1
9a
9d
af
78
93
80
9b
7d
76
7b
87
99
9e
93
9c
a2
6e
83
ac
81
a1
5d
a7
90
83
8a
83
53
91
8b
a7
9d
7c
90
70
7b
90
7a
a8
8c
a0
79
93
9d
86
95
8c
88
8a
98
7e
7b
70
b0
96
8c
9b
9e
8a
88
a4
9f
b8
9b
87
95
53
8d
83
7e
ac
9d
84
a9
89
bf
74
a0
7c
7e
cb
90
68
a6
75
8e
98
98
9e
79
8a
89
99
98
a1
6b
8a
a1
71
73
85
71
97
75
ad
a9
9b
a6
a5
7b
a6
9e
cc
7c
ba
89
78
6c
74
6c
7e
71
96
70
97
a6
82
89
86
7a
a7
ac
9f
87
93
b2
b1
54
66
88
75
81
8b
65
b0
7e
86
78
8c
97
b3
ce
8a
96
a9
75
68
94
95
9a
9c
b9
7f
a4
9a
80
6a
9d
90
9a
85
98
89
ae
66
78
81
a2
93
96
a1
8b
7a
7f
9f
99
83
98
89
79
98
9a
7d
8c
97
86
9d
6a
7b
87
91
8d
85
7a
90
a6
8b
a8
81
6a
9d
a7
99
92
97
86
7c
8b
79
75
89
96
a4
a3
92
8c
8e
7d
96
89
88
95
8f
99
76
64
8c
8b
a5
7c
79
92
9a
a0
7c
76
8e
84
80
86
87
a5
84
85
9f
7f
88
8d
99
78
ac
81
87
8c
86
ac
7c
84
84
75
9a
a2
6e
86
a2
92
5b
a1
7a
8d
84
90
a1
8b
a8
76
98
6b
4b
79
9d
91
83
95
86
79
a8
8f
7d
6d
75
8c
7b
96
99
94
98
98
73
91
7e
91
99
88
b6
8b
91
70
85
84
8f
81
a1
74
90
a7
81
92
ab
7f
99
a0
98
9a
83
7d
a3
81
a0
b4
77
8d
a8
7a
82
68
92
6f
7b
9a
5b
a8
54
83
79
8b
90
86
92
83
87
96
5d
99
8c
91
84
8c
75
8d
96
75
86
9b
82
90
98
a3
86
87
7c
9b
77
67
9d
88
6f
7d
a5
73
94
a6
86
8e
91
7e
76
75
80
a2
71
a5
7d
94
7b
66
98
82
91
6d
86
78
a7
82
83
a0
6d
80
90
74
9a
7a
83
87
95
7a
81
86
a3
a6
83
8f
77
98
83
8a
a3
b0
77
93
ab
85
8f
a0
81
80
a3
73
8b
9e
72
9a
7f
9b
7d
82
88
8e
7d
a4
9c
a4
94
90
92
93
a8
8c
77
88
98
84
8f
a4
90
ae
8e
86
99
7e
b7
8d
74
8d
6a
77
a4
8e
a5
6d
9e
9b
8b
93
a2
6a
96
8d
97
70
82
8f
a0
7a
a4
90
a4
9d
ad
7a
9f
98
a4
84
b9
7f
60
76
70
6b
86
65
77
73
83
8b
80
95
5e
7b
94
ad
7b
92
95
9c
b0
6d
70
9c
6e
95
8d
7e
a8
84
a0
69
5e
93
9e
b2
68
b0
9d
81
6e
79
95
76
7a
a7
8a
88
a2
86
7f
93
86
96
95
bb
a9
9f
67
9a
9d
8a
8f
8f
8f
8d
68
7c
92
96
8c
8e
b5
ac
71
72
ab
97
95
88
7a
84
74
89
89
6a
6b
81
95
9f
84
a5
73
91
8b
9f
8e
7b
97
ad
9e
5b
94
c4
9e
92
7e
89
92
9f
7e
63
89
69
8f
95
b7
9f
aa
84
71
8d
af
8a
52
85
b0
8e
85
6e
93
97
77
8e
b1
8f
94
a8
9f
a0
96
8b
9d
7a
89
95
7c
8c
7f
65
7d
72
80
6f
bd
75
69
79
9b
95
74
99
9c
88
92
b7
77
89
9a
88
73
6d
70
a1
71
81
7c
95
7c
62
82
7f
a7
6f
91
81
91
87
a2
91
96
a6
88
8c
95
96
8e
91
70
96
7e
84
7a
b9
75
93
91
7c
8a
84
85
8e
6f
91
7f
79
98
92
a4
60
71
81
74
b4
84
99
a1
70
75
b3
9a
85
94
73
85
91
92
98
a5
9f
b5
93
b8
85
8a
74
98
88
6b
a1
85
6b
6c
83
76
80
91
81
ae
98
79
a0
81
8f
82
b6
76
77
90
8d
8d
8e
a8
81
89
9d
87
81
84
96
79
77
7c
88
74
88
8f
68
87
71
a5
58
8d
4d
80
92
b7
9e
8c
7e
78
96
ad
75
8d
76
8a
79
78
75
87
6d
a3
82
93
b9
98
9b
8a
9c
9a
ad
8a
97
97
89
75
80
8a
8d
98
72
86
86
77
a1
6b
90
98
75
84
a1
83
9d
9e
a4
a2
a5
9e
9b
87
7b
80
8f
91
a1
97
b7
9e
a8
84
92
94
8d
b5
7a
89
7a
67
8e
80
90
ac
92
89
9a
87
a6
98
74
8a
91
85
73
8e
b1
88
6a
9f
7d
8d
8e
a0
8f
a3
9a
a2
88
91
8a
69
92
84
86
77
74
83
89
7f
83
90
88
89
99
8e
a1
9d
8e
95
96
94
93
7a
98
89
82
9d
8b
8d
88
92
74
81
92
91
9c
93
a5
ad
7c
8d
80
8e
8b
8e
90
6f
9a
ab
97
79
8f
93
81
89
b0
9b
96
6b
74
74
8e
79
8f
b2
85
99
81
92
7c
b5
65
83
7b
83
a3
8f
84
ad
82
8b
9c
79
83
a0
68
74
7c
8f
62
95
77
71
9b
a0
8f
a1
7e
69
92
82
86
99
96
78
72
93
9f
97
90
9f
7c
77
a1
70
7c
84
95
8d
50
79
92
8f
7c
79
a9
95
86
9f
78
89
9d
86
a4
85
84
95
62
b1
8f
74
63
84
9b
5e
a3
92
98
84
77
85
a0
60
b1
7a
8c
96
88
85
a0
8d
89
a4
7f
86
96
79
74
8a
87
81
5c
8b
95
92
7b
92
8e
93
81
ae
89
97
78
81
81
8e
8c
a2
84
a2
86
5c
93
a0
95
7c
93
97
99
87
a6
92
99
6d
97
6e
8e
84
88
9f
86
97
97
99
7f
ad
83
9b
58
84
98
93
a2
97
9c
8d
6e
99
96
96
53
91
90
8f
8f
6d
8c
a1
a2
8a
8b
a8
7b
7b
90
7c
9a
82
93
6f
6d
85
7a
6b
98
72
91
9d
b1
80
96
8f
b1
a2
8f
9e
7c
94
7e
82
69
95
96
77
89
60
66
76
a5
93
7f
88
a4
84
8b
92
a0
99
99
a0
83
b9
8f
95
84
67
9c
7f
79
88
7d
7a
a2
72
74
93
86
94
90
8f
87
8b
8a
8c
8b
9d
93
76
83
9c
76
7a
83
7f
b8
79
97
71
64
73
84
8a
8d
74
98
64
82
8c
97
b0
8f
b6
7b
88
95
ba
7c
6d
92
93
7f
92
77
a3
8a
6f
7f
9c
b2
7e
9b
8f
a5
9f
8c
9d
8f
9c
7e
7c
73
8a
90
76
7d
44
75
84
a3
7d
85
90
bb
90
89
9f
9a
ae
99
a3
95
b8
83
a8
7f
72
aa
68
69
8f
88
7a
97
70
6a
92
85
8a
90
9b
9d
7d
87
8a
80
ae
9b
84
87
8e
7b
84
80
89
b5
81
9c
7b
67
6f
8d
7f
8e
72
a6
71
8e
85
a3
b8
8e
c5
66
90
9d
bb
75
70
a4
94
84
97
79
b5
90
62
81
90
b4
71
93
7f
9e
ab
8f
99
79
8e
7c
86
56
78
82
70
82
5d
5f
82
94
7c
7a
98
ba
8c
80
87
97
b2
a2
a2
91
b5
86
96
7c
75
a3
66
6d
8b
84
74
92
66
72
a0
90
90
8e
94
a0
89
99
83
86
9d
90
82
8f
95
73
87
89
8a
c6
7e
a2
7b
66
68
97
7c
92
6b
a6
62
8a
8b
9d
b2
94
cb
75
8f
91
c6
75
6e
a4
98
83
96
71
a9
76
6a
7d
94
a9
73
b7
86
ae
ab
7d
ae
76
8e
8e
72
67
70
81
7b
7c
66
6f
7a
91
7d
86
a7
b0
8f
9b
85
a0
b9
96
a5
a1
b2
74
8f
80
6b
9f
7b
7a
87
70
6b
9e
7e
79
8f
77
80
90
8a
aa
8e
a0
90
86
93
9a
8c
94
8b
6a
7c
8d
86
a5
83
94
7d
69
7e
7d
8d
85
7a
ae
71
85
89
84
a2
93
c1
89
72
85
cb
6c
7d
a7
9b
73
98
74
a5
6e
68
86
a7
82
7a
c1
89
9b
80
6b
99
87
c1
8d
9d
a4
84
a6
69
81
85
a5
72
9a
b9
62
8a
6e
78
95
a0
a5
7c
6e
88
83
7a
7d
72
ae
71
a7
b7
89
71
89
9e
88
8d
71
80
7d
78
83
93
77
98
97
7a
95
97
ad
64
97
91
a3
79
95
72
b6
88
8d
82
6b
a4
65
8c
8b
8a
a5
9c
72
7e
9a
a6
6c
86
89
74
82
92
7f
79
4f
be
67
8f
84
9f
ab
ac
8e
70
86
84
aa
a0
ac
95
6d
7e
6c
ac
9a
94
ae
91
c4
80
aa
7b
8b
99
98
9f
6e
95
8b
97
9b
b2
95
9a
93
b6
a1
7a
84
7d
8a
83
a5
84
98
7d
87
ac
84
88
6e
89
97
85
83
9c
7e
a2
7a
80
87
98
81
91
92
8b
91
90
98
7b
a7
96
73
85
89
95
81
8e
85
80
95
7f
a2
61
a4
aa
6e
8d
86
81
8d
7e
82
6b
6f
94
71
90
82
87
91
ac
7e
62
85
77
90
a1
82
85
7b
99
7b
96
79
84
a0
8e
94
91
97
7f
93
76
86
99
74
78
ad
9b
9d
aa
a1
9c
84
b7
9f
8c
8a
a2
84
91
a7
64
7b
7f
7e
95
7b
75
8f
85
95
89
93
7b
a3
79
8e
87
9e
78
88
a0
88
96
7d
89
6f
85
9a
6e
81
91
85
88
91
93
7b
9d
97
8b
68
80
97
88
92
85
72
8c
95
9d
91
7f
81
a4
84
9f
7a
85
86
8c
6a
95
99
83
9c
97
78
98
83
73
80
a7
95
78
ae
bb
98
96
9d
62
9f
70
8d
84
84
7b
a2
81
8f
a2
99
b8
82
cd
71
77
7b
a0
9e
93
8b
7b
6b
4f
6b
96
71
95
92
7a
98
ab
9a
84
8f
a3
80
a7
a9
89
92
8f
a1
ae
75
7c
93
98
a1
7c
7b
73
89
7c
85
8a
83
a4
c1
9a
4a
88
77
93
be
91
9e
69
81
76
9f
7e
73
bb
88
a4
6a
a0
a2
89
63
a6
b2
51
b6
9c
96
a1
62
96
8b
b2
a4
87
9f
70
8c
89
7f
75
60
7f
94
80
8f
74
7f
ab
97
57
69
6d
b0
aa
7b
68
8a
80
85
80
90
81
90
84
7d
9b
82
6f
88
62
83
73
87
5f
73
98
75
8f
9c
95
7d
8e
87
5d
81
81
9a
94
9f
8f
7c
92
89
ac
89
98
91
7c
95
97
90
ac
99
a3
81
8d
60
9d
70
8c
81
a1
87
a1
9e
a1
8a
8f
95
93
97
81
b6
48
bc
9c
82
a3
77
95
97
a8
a4
89
a3
73
8f
92
79
6a
66
87
9f
71
8a
5a
89
a0
8f
65
79
78
b3
ad
7f
6c
83
84
90
8c
95
77
a5
7e
91
9b
89
6e
7a
61
91
7d
8f
5d
64
9d
81
9d
9a
9b
89
8f
83
57
77
83
a5
92
95
8e
72
89
8e
b6
9b
9d
98
65
96
a0
85
a1
8c
a3
88
8d
46
9c
6b
a0
89
96
79
8d
9a
99
81
98
76
94
94
7e
c8
4e
aa
93
85
a4
6a
89
9d
ad
99
78
a4
64
9e
7f
73
6c
68
76
89
64
84
61
8f
a1
97
7a
81
6b
b4
c3
79
57
83
82
87
90
90
76
89
6d
96
b1
7c
64
8b
63
7d
8b
a2
50
5c
92
6f
a6
93
91
7d
94
7f
72
6d
7b
9d
89
a8
8f
7a
82
8f
a8
8c
b8
a7
67
8d
b5
86
a7
a0
a0
90
74
55
b9
76
b3
73
a0
76
90
9f
98
81
7d
92
9d
96
8e
bd
4f
a7
8d
8a
ae
70
72
8e
8c
94
7a
9c
6e
89
83
88
63
61
70
8e
57
87
72
8d
95
8e
7a
79
77
b2
c3
8a
66
8a
92
90
9c
7c
82
80
6b
90
ab
7b
7e
9a
58
6a
89
a7
69
56
99
81
a9
8c
9d
8b
90
89
5f
7a
83
9f
94
98
a3
7e
7b
89
a4
86
b0
90
69
99
b3
94
99
a2
9c
8e
80
70
a3
60
95
86
96
95
94
96
9a
87
92
96
86
86
89
a2
a9
74
81
8b
8d
85
a0
a2
77
8b
9c
94
99
95
a0
8f
83
74
8b
82
85
8c
91
9c
61
6e
9d
88
99
87
70
91
90
9b
79
72
a3
93
ac
7f
8e
87
98
7f
93
9a
8b
a0
82
8d
7b
7f
80
7d
92
79
85
a7
70
a0
92
8c
97
76
8d
81
a9
79
9a
a6
a6
9b
bb
91
96
96
6b
ac
96
85
8e
c0
6b
8d
82
9c
94
8c
80
9a
8b
a3
a1
97
8c
8b
ba
86
88
8d
8f
8c
82
79
90
84
8d
94
7f
93
9f
93
9c
79
99
95
9c
8a
8d
98
9c
85
91
7e
9b
7b
93
91
8f
84
8d
8e
97
80
79
97
90
93
99
93
90
96
7e
94
80
8c
8c
8f
8a
9f
93
89
9c
93
8e
89
94
9e
96
91
84
89
8c
86
98
8b
81
82
82
8e
93
8f
8b
91
89
88
89
87
83
86
93
81
8e
91
86
89
a5
9f
8b
8c
91
79
80
83
8b
8e
90
8b
89
84
98
8b
60
92
a4
80
8c
7c
89
6b
89
80
8b
8b
95
9c
80
79
82
a2
84
96
9a
63
88
6b
8b
8c
9b
8e
90
94
7b
76
6e
97
8d
97
6c
9f
8d
af
8b
88
7b
7f
85
8a
96
99
91
7e
98
8a
81
83
8e
9c
9c
96
9d
9b
87
80
92
a8
91
84
76
92
8c
98
80
9b
7e
93
95
87
a5
98
8d
8a
a7
8c
94
9b
a2
8f
68
7e
96
73
67
9d
9e
98
83
80
84
a8
92
7f
a1
7d
8c
79
86
7b
9e
9b
b2
74
81
a8
91
8b
99
97
89
b4
a1
a6
8e
61
62
83
8a
80
81
81
8d
8b
77
8e
8b
8e
86
8f
75
9d
9a
95
8f
81
97
95
86
9e
7c
99
9c
91
73
8a
95
a1
ab
82
8a
89
97
97
8b
6f
8e
8e
8a
79
b1
91
ae
80
96
a6
96
8e
97
87
91
75
72
98
89
85
7d
85
8a
84
79
ad
7f
79
84
87
8c
96
8e
8a
8e
91
78
82
91
6f
94
8b
78
94
8a
73
99
6f
8a
85
a9
88
99
8d
81
8f
8d
73
90
8f
85
63
96
77
94
7e
8f
87
8a
9b
8a
9f
8b
96
62
ab
77
a3
7a
8f
81
5c
a2
8c
86
8b
ab
99
a1
7d
82
70
8e
7a
a0
7a
97
b5
a2
8e
96
90
ad
97
88
80
80
79
6e
81
9c
9d
8b
b2
a2
99
97
75
af
68
a2
7e
88
86
82
7b
9e
9c
94
97
81
92
7f
9b
97
9d
7c
88
9d
85
85
a3
b0
95
af
97
75
8b
70
b0
8b
8b
7d
a0
72
81
a0
8a
7f
a4
84
90
67
8f
93
5b
90
6d
84
93
9a
9d
95
8b
76
8a
78
73
7c
a1
78
83
9e
ac
80
86
b3
86
7c
a1
83
7f
8d
88
98
9c
70
94
86
9c
84
a5
7c
81
78
7a
7a
82
6a
96
81
67
89
af
82
89
b8
97
be
6b
87
88
8b
85
b0
98
92
8b
9e
83
a0
8e
83
95
a2
a5
69
77
89
61
af
b6
9e
a4
97
8a
70
7e
74
94
aa
96
7e
90
43
5d
a2
a6
97
87
77
7a
7a
8a
a4
90
7a
6d
9d
8c
9b
7a
8b
82
a8
a2
92
72
66
93
86
a1
70
a7
8f
84
bc
96
8d
b4
95
85
86
96
79
92
98
a2
9c
a8
7d
9a
89
89
83
6b
77
5a
8c
7b
a7
77
9b
90
76
78
9d
7f
99
8e
69
60
7d
8f
77
a1
ad
88
96
94
b5
7a
8f
9f
a5
9a
73
66
7c
71
ad
88
98
9b
8e
8b
6d
6a
8d
8d
93
8f
68
90
83
a7
91
6e
80
78
7a
73
6f
93
98
7e
87
6b
73
7b
70
a6
6b
a0
6a
8f
67
8c
6b
88
89
6b
81
8f
ab
a5
8f
91
8d
99
7b
95
97
85
9f
8e
8a
a1
a4
9b
93
9c
91
75
62
71
8a
6e
81
82
95
6c
8b
91
83
7a
8c
5a
a2
6a
a0
90
99
80
7c
97
92
90
a2
8c
9e
a8
85
a2
a7
8f
98
7a
a5
7d
b0
80
99
8d
b9
8e
87
8d
c3
ac
a1
82
73
c0
82
5d
a4
84
8a
9b
c1
8b
94
69
bd
8d
7f
7b
7a
9b
a5
a9
a2
b0
80
83
92
9b
65
b6
87
86
bd
8b
b3
96
86
6f
8b
8c
83
71
86
77
a4
7f
b9
9c
7a
96
88
ba
d9
a3
8b
90
8c
73
89
82
88
89
70
8e
7c
b8
a2
69
95
77
c8
74
77
6f
85
8e
88
77
90
7d
68
a0
6c
a5
9e
9a
7d
7d
91
88
9d
93
99
8e
b5
c1
70
81
a9
9e
85
7d
88
95
6f
6c
a5
93
65
8e
98
8e
80
9a
9a
75
a8
69
6b
8c
89
96
a6
9e
91
75
7e
7a
7f
7e
a9
94
bb
a5
8e
69
84
7d
83
96
8c
71
a0
81
97
76
96
9b
91
bc
9f
af
62
78
5d
8f
83
64
ad
8e
86
9d
87
7f
9c
7f
90
88
a1
b8
b5
88
86
96
67
95
77
99
6c
73
95
8f
78
85
8f
80
6b
65
6f
6e
8b
a0
85
73
a6
9a
8c
74
97
94
81
92
6e
9b
79
8d
8d
81
91
97
8a
80
97
92
98
75
a6
79
78
8e
8f
98
ac
ae
83
9b
74
a6
8d
6c
a2
6e
94
71
83
81
a0
98
a8
ab
88
8c
64
97
a0
a4
99
99
74
77
b5
79
a7
65
a7
7a
78
68
80
66
7d
7f
a5
95
8c
75
94
77
85
89
86
75
7b
8f
8d
94
7e
86
6d
88
95
ad
88
a9
8d
76
7f
77
86
7b
97
98
a6
5f
8c
6b
ac
7e
69
91
9a
8d
96
83
70
8f
7f
88
8d
67
84
7e
8b
75
8d
8a
9c
80
6d
72
6e
c4
95
87
87
89
5c
88
43
7b
79
77
91
87
71
a2
b3
9b
7c
94
78
6b
ac
b2
62
80
a5
b8
7e
88
96
95
96
7f
6a
68
ae
72
71
83
91
93
94
9d
74
7b
b2
7d
84
7d
75
69
61
69
6f
94
b4
9b
78
92
8e
80
87
a3
92
96
74
79
60
8b
ae
7e
82
98
90
b3
73
6c
8a
89
88
76
6f
90
9c
6d
64
a0
74
84
88
8f
86
90
9d
9a
8c
80
8e
a1
8f
7f
9c
95
84
9b
94
84
7f
a0
a2
88
8e
90
82
7c
6a
8b
70
ab
ae
6b
95
7f
9b
84
77
99
97
9f
9d
a6
b1
65
83
7d
96
93
b0
96
76
5d
8c
8f
76
a6
a8
6d
9d
94
72
9a
9c
72
9d
c2
72
a0
96
5a
81
8c
7b
7c
7e
81
70
a6
62
75
75
82
89
74
98
aa
80
80
61
78
aa
8f
7c
8c
70
ac
88
93
79
86
80
6f
6c
99
78
77
b3
a2
9b
90
71
92
98
8b
70
9d
96
77
8b
a0
97
9d
9f
67
93
84
59
9f
ac
ab
8e
56
6d
8e
a4
89
81
73
b2
7d
b1
85
7d
a7
7a
98
73
62
8b
89
a8
6f
8f
ae
6a
7b
ae
7e
a0
71
63
91
6d
63
58
85
b4
a1
84
87
94
84
b9
a5
71
90
88
8f
61
76
82
7c
89
77
94
8a
77
6d
8f
74
a2
8a
9a
a6
74
78
85
9b
73
83
95
7f
9a
7d
5f
71
94
99
93
72
87
ae
9a
99
68
bd
84
9d
7e
87
92
8c
91
90
a2
95
93
7a
b5
c8
90
70
9c
75
9a
95
a4
8c
8b
90
a4
a3
80
8e
8c
9f
7b
7a
87
91
89
8a
7f
96
7c
92
91
6f
8a
73
8a
95
78
6b
5b
7a
a3
91
86
92
7c
a6
7b
9c
93
86
8d
81
83
a1
85
88
7a
74
97
89
79
a1
92
a7
99
7a
8b
8c
8b
88
77
91
94
4c
79
8f
88
81
6e
bc
82
7b
94
85
ac
8a
73
89
7d
83
bd
87
7f
af
98
8b
8a
9d
8a
a7
98
94
5e
83
85
82
9b
b0
8b
8b
98
99
97
83
8f
95
a9
79
6a
7f
7f
b3
8a
74
78
8e
8f
94
6d
9a
85
75
7a
9f
a8
76
93
86
7c
90
95
78
61
73
7f
97
9e
a8
8d
97
b4
ac
4d
6a
b0
78
86
6a
7d
92
76
6d
9b
89
8a
87
88
87
a3
b0
84
85
a3
72
a2
64
7e
92
74
68
61
8f
71
95
98
84
a4
82
91
b0
7b
92
98
75
83
96
8b
92
9a
81
88
84
81
a8
ab
83
a7
84
bc
82
7b
8d
92
7a
67
91
7d
66
92
92
83
6d
73
82
a6
90
8b
77
80
7d
67
a0
6a
bf
67
8f
6d
8c
92
7d
86
68
81
8a
59
8d
75
81
83
8f
9a
7a
7c
7a
9b
64
a4
87
b1
a8
7e
5b
9c
8f
b4
ae
7a
86
7e
77
86
7b
99
96
ba
7d
67
7d
8b
